{
  "version": "1.0",
  "truncation": null,
  "padding": null,
  "added_tokens": [
    {
      "id": 0,
      "content": "<s>",
      "single_word": false,
      "lstrip": false,
      "rstrip": false,
      "normalized": false,
      "special": true
    },
    {
      "id": 1,
      "content": "</s>",
      "single_word": false,
      "lstrip": false,
      "rstrip": false,
      "normalized": false,
      "special": true
    },
    {
      "id": 2,
      "content": "<pad>",
      "single_word": false,
      "lstrip": false,
      "rstrip": false,
      "normalized": false,
      "special": true
    },
    {
      "id": 3,
      "content": "<unk>",
      "single_word": false,
      "lstrip": false,
      "rstrip": false,
      "normalized": false,
      "special": true
    },
    {
      "id": 4,
      "content": "##AT##-##AT##",
      "single_word": false,
      "lstrip": false,
      "rstrip": false,
      "normalized": false,
      "special": true
    }
  ],
  "normalizer": {
    "type": "Sequence",
    "normalizers": [
      {
        "type": "NFD"
      },
      {
        "type": "StripAccents"
      }
    ]
  },
  "pre_tokenizer": {
    "type": "Whitespace"
  },
  "post_processor": null,
  "decoder": {
    "type": "BPEDecoder",
    "suffix": "</w>"
  },
  "model": {
    "type": "BPE",
    "dropout": null,
    "unk_token": "<unk>",
    "continuing_subword_prefix": null,
    "end_of_word_suffix": "</w>",
    "fuse_unk": false,
    "byte_fallback": false,
    "ignore_merges": false,
    "vocab": {
      "<s>": 0,
      "</s>": 1,
      "<pad>": 2,
      "<unk>": 3,
      "##AT##-##AT##": 4,
      "!": 5,
      "\"": 6,
      "#": 7,
      "$": 8,
      "%": 9,
      "&": 10,
      "'": 11,
      "(": 12,
      ")": 13,
      "*": 14,
      "+": 15,
      ",": 16,
      "-": 17,
      ".": 18,
      "/": 19,
      "0": 20,
      "1": 21,
      "2": 22,
      "3": 23,
      "4": 24,
      "5": 25,
      "6": 26,
      "7": 27,
      "8": 28,
      "9": 29,
      ":": 30,
      ";": 31,
      "<": 32,
      "=": 33,
      ">": 34,
      "?": 35,
      "@": 36,
      "A": 37,
      "B": 38,
      "C": 39,
      "D": 40,
      "E": 41,
      "F": 42,
      "G": 43,
      "H": 44,
      "I": 45,
      "J": 46,
      "K": 47,
      "L": 48,
      "M": 49,
      "N": 50,
      "O": 51,
      "P": 52,
      "Q": 53,
      "R": 54,
      "S": 55,
      "T": 56,
      "U": 57,
      "V": 58,
      "W": 59,
      "X": 60,
      "Y": 61,
      "Z": 62,
      "\\": 63,
      "^": 64,
      "_": 65,
      "`": 66,
      "a": 67,
      "b": 68,
      "c": 69,
      "d": 70,
      "e": 71,
      "f": 72,
      "g": 73,
      "h": 74,
      "i": 75,
      "j": 76,
      "k": 77,
      "l": 78,
      "m": 79,
      "n": 80,
      "o": 81,
      "p": 82,
      "q": 83,
      "r": 84,
      "s": 85,
      "t": 86,
      "u": 87,
      "v": 88,
      "w": 89,
      "x": 90,
      "y": 91,
      "z": 92,
      "~": 93,
      "": 94,
      "": 95,
      "": 96,
      "": 97,
      "": 98,
      "": 99,
      "": 100,
      "": 101,
      "": 102,
      "": 103,
      "": 104,
      "": 105,
      "": 106,
      "": 107,
      "": 108,
      "": 109,
      "": 110,
      "": 111,
      "": 112,
      "": 113,
      "": 114,
      "¡": 115,
      "¢": 116,
      "£": 117,
      "¤": 118,
      "¥": 119,
      "¦": 120,
      "§": 121,
      "¨": 122,
      "©": 123,
      "ª": 124,
      "¬": 125,
      "­": 126,
      "®": 127,
      "¯": 128,
      "°": 129,
      "±": 130,
      "²": 131,
      "³": 132,
      "´": 133,
      "µ": 134,
      "¶": 135,
      "·": 136,
      "¸": 137,
      "¹": 138,
      "º": 139,
      "½": 140,
      "¾": 141,
      "¿": 142,
      "Æ": 143,
      "Ð": 144,
      "×": 145,
      "Ø": 146,
      "Þ": 147,
      "ß": 148,
      "æ": 149,
      "ð": 150,
      "÷": 151,
      "ø": 152,
      "þ": 153,
      "Đ": 154,
      "đ": 155,
      "Ħ": 156,
      "ħ": 157,
      "ı": 158,
      "Ĳ": 159,
      "ĸ": 160,
      "Ŀ": 161,
      "Ł": 162,
      "ł": 163,
      "ŋ": 164,
      "Œ": 165,
      "œ": 166,
      "ſ": 167,
      "Ɔ": 168,
      "Ƒ": 169,
      "ƒ": 170,
      "Ɠ": 171,
      "Ɩ": 172,
      "Ƙ": 173,
      "ƛ": 174,
      "Ɲ": 175,
      "Ʀ": 176,
      "Ƭ": 177,
      "ǝ": 178,
      "Ȣ": 179,
      "Ȥ": 180,
      "Ȼ": 181,
      "ɐ": 182,
      "ɑ": 183,
      "ɒ": 184,
      "ɔ": 185,
      "ɕ": 186,
      "ə": 187,
      "ɚ": 188,
      "ɛ": 189,
      "ɜ": 190,
      "ɡ": 191,
      "ɢ": 192,
      "ɣ": 193,
      "ɤ": 194,
      "ɨ": 195,
      "ɪ": 196,
      "ɫ": 197,
      "ɬ": 198,
      "ɯ": 199,
      "ɲ": 200,
      "ɴ": 201,
      "ɵ": 202,
      "ɹ": 203,
      "ɾ": 204,
      "ʀ": 205,
      "ʁ": 206,
      "ʃ": 207,
      "ʊ": 208,
      "ʋ": 209,
      "ʌ": 210,
      "ʎ": 211,
      "ʐ": 212,
      "ʒ": 213,
      "ʔ": 214,
      "ʚ": 215,
      "ʤ": 216,
      "ʦ": 217,
      "ʰ": 218,
      "ʲ": 219,
      "ʺ": 220,
      "ʻ": 221,
      "ʼ": 222,
      "ʾ": 223,
      "ʿ": 224,
      "ˁ": 225,
      "ˆ": 226,
      "ˇ": 227,
      "ˈ": 228,
      "ˌ": 229,
      "ː": 230,
      "ˑ": 231,
      "˘": 232,
      "˙": 233,
      "˚": 234,
      "˛": 235,
      "˜": 236,
      "˝": 237,
      "ˡ": 238,
      "ˤ": 239,
      "΄": 240,
      "Α": 241,
      "Β": 242,
      "Γ": 243,
      "Δ": 244,
      "Ε": 245,
      "Ζ": 246,
      "Η": 247,
      "Θ": 248,
      "Ι": 249,
      "Κ": 250,
      "Λ": 251,
      "Μ": 252,
      "Ν": 253,
      "Ο": 254,
      "Π": 255,
      "Ρ": 256,
      "Σ": 257,
      "Τ": 258,
      "Υ": 259,
      "Φ": 260,
      "Χ": 261,
      "Ω": 262,
      "α": 263,
      "β": 264,
      "γ": 265,
      "δ": 266,
      "ε": 267,
      "ζ": 268,
      "η": 269,
      "θ": 270,
      "ι": 271,
      "κ": 272,
      "λ": 273,
      "μ": 274,
      "ν": 275,
      "ξ": 276,
      "ο": 277,
      "π": 278,
      "ρ": 279,
      "ς": 280,
      "σ": 281,
      "τ": 282,
      "υ": 283,
      "φ": 284,
      "χ": 285,
      "ψ": 286,
      "ω": 287,
      "Ђ": 288,
      "Є": 289,
      "Ѕ": 290,
      "І": 291,
      "Ј": 292,
      "Љ": 293,
      "Њ": 294,
      "Ћ": 295,
      "Џ": 296,
      "А": 297,
      "Б": 298,
      "В": 299,
      "Г": 300,
      "Д": 301,
      "Е": 302,
      "Ж": 303,
      "З": 304,
      "И": 305,
      "К": 306,
      "Л": 307,
      "М": 308,
      "Н": 309,
      "О": 310,
      "П": 311,
      "Р": 312,
      "С": 313,
      "Т": 314,
      "У": 315,
      "Ф": 316,
      "Х": 317,
      "Ц": 318,
      "Ч": 319,
      "Ш": 320,
      "Щ": 321,
      "Ъ": 322,
      "Ы": 323,
      "Ь": 324,
      "Э": 325,
      "Ю": 326,
      "Я": 327,
      "а": 328,
      "б": 329,
      "в": 330,
      "г": 331,
      "д": 332,
      "е": 333,
      "ж": 334,
      "з": 335,
      "и": 336,
      "к": 337,
      "л": 338,
      "м": 339,
      "н": 340,
      "о": 341,
      "п": 342,
      "р": 343,
      "с": 344,
      "т": 345,
      "у": 346,
      "ф": 347,
      "х": 348,
      "ц": 349,
      "ч": 350,
      "ш": 351,
      "щ": 352,
      "ъ": 353,
      "ы": 354,
      "ь": 355,
      "э": 356,
      "ю": 357,
      "я": 358,
      "ђ": 359,
      "є": 360,
      "ѕ": 361,
      "і": 362,
      "ј": 363,
      "љ": 364,
      "њ": 365,
      "ћ": 366,
      "џ": 367,
      "Ѳ": 368,
      "ѳ": 369,
      "Ґ": 370,
      "ґ": 371,
      "ғ": 372,
      "ҙ": 373,
      "қ": 374,
      "Ҡ": 375,
      "ҡ": 376,
      "ң": 377,
      "ү": 378,
      "ұ": 379,
      "Ҳ": 380,
      "ҳ": 381,
      "һ": 382,
      "ә": 383,
      "ө": 384,
      "א": 385,
      "ב": 386,
      "ג": 387,
      "ד": 388,
      "ה": 389,
      "ו": 390,
      "ז": 391,
      "ח": 392,
      "ט": 393,
      "י": 394,
      "כ": 395,
      "ל": 396,
      "ם": 397,
      "מ": 398,
      "ן": 399,
      "נ": 400,
      "ס": 401,
      "ע": 402,
      "פ": 403,
      "ץ": 404,
      "צ": 405,
      "ק": 406,
      "ר": 407,
      "ש": 408,
      "ת": 409,
      "،": 410,
      "ء": 411,
      "ا": 412,
      "ب": 413,
      "ة": 414,
      "ت": 415,
      "ث": 416,
      "ج": 417,
      "ح": 418,
      "خ": 419,
      "د": 420,
      "ذ": 421,
      "ر": 422,
      "ز": 423,
      "س": 424,
      "ش": 425,
      "ص": 426,
      "ض": 427,
      "ط": 428,
      "ظ": 429,
      "ع": 430,
      "غ": 431,
      "ـ": 432,
      "ف": 433,
      "ق": 434,
      "ك": 435,
      "ل": 436,
      "م": 437,
      "ن": 438,
      "ه": 439,
      "و": 440,
      "ى": 441,
      "ي": 442,
      "ٲ": 443,
      "ٹ": 444,
      "پ": 445,
      "چ": 446,
      "ڠ": 447,
      "ڤ": 448,
      "ک": 449,
      "ڬ": 450,
      "ڭ": 451,
      "گ": 452,
      "ھ": 453,
      "ہ": 454,
      "ۆ": 455,
      "ۇ": 456,
      "ی": 457,
      "ە": 458,
      "۞": 459,
      "۩": 460,
      "۰": 461,
      "۱": 462,
      "۲": 463,
      "۳": 464,
      "۴": 465,
      "۵": 466,
      "۶": 467,
      "۷": 468,
      "۸": 469,
      "۹": 470,
      "ރ": 471,
      "ކ": 472,
      "އ": 473,
      "މ": 474,
      "ߖ": 475,
      "ߧ": 476,
      "अ": 477,
      "आ": 478,
      "इ": 479,
      "ई": 480,
      "उ": 481,
      "ऊ": 482,
      "ऋ": 483,
      "ए": 484,
      "ऐ": 485,
      "ऑ": 486,
      "ओ": 487,
      "औ": 488,
      "क": 489,
      "ख": 490,
      "ग": 491,
      "घ": 492,
      "च": 493,
      "छ": 494,
      "ज": 495,
      "झ": 496,
      "ञ": 497,
      "ट": 498,
      "ठ": 499,
      "ड": 500,
      "ढ": 501,
      "ण": 502,
      "त": 503,
      "थ": 504,
      "द": 505,
      "ध": 506,
      "न": 507,
      "प": 508,
      "फ": 509,
      "ब": 510,
      "भ": 511,
      "म": 512,
      "य": 513,
      "र": 514,
      "ल": 515,
      "व": 516,
      "श": 517,
      "ष": 518,
      "स": 519,
      "ह": 520,
      "ॐ": 521,
      "ॡ": 522,
      "।": 523,
      "०": 524,
      "१": 525,
      "२": 526,
      "३": 527,
      "५": 528,
      "९": 529,
      "আ": 530,
      "ই": 531,
      "এ": 532,
      "ক": 533,
      "গ": 534,
      "ঙ": 535,
      "চ": 536,
      "ট": 537,
      "ত": 538,
      "ন": 539,
      "প": 540,
      "ব": 541,
      "ম": 542,
      "য": 543,
      "র": 544,
      "ল": 545,
      "শ": 546,
      "ষ": 547,
      "হ": 548,
      "ৰ": 549,
      "ਗ": 550,
      "ਚ": 551,
      "ਡ": 552,
      "ਹ": 553,
      "ੜ": 554,
      "અ": 555,
      "ક": 556,
      "જ": 557,
      "ત": 558,
      "મ": 559,
      "ય": 560,
      "ર": 561,
      "સ": 562,
      "૦": 563,
      "૧": 564,
      "૨": 565,
      "க": 566,
      "ங": 567,
      "ச": 568,
      "ட": 569,
      "த": 570,
      "ன": 571,
      "ப": 572,
      "ம": 573,
      "ய": 574,
      "ர": 575,
      "ல": 576,
      "வ": 577,
      "ஷ": 578,
      "ఆ": 579,
      "క": 580,
      "గ": 581,
      "జ": 582,
      "డ": 583,
      "ద": 584,
      "ధ": 585,
      "న": 586,
      "ప": 587,
      "ర": 588,
      "శ": 589,
      "ಐ": 590,
      "ಯ": 591,
      "ರ": 592,
      "ವ": 593,
      "ಶ": 594,
      "೦": 595,
      "೧": 596,
      "೨": 597,
      "೩": 598,
      "೫": 599,
      "೬": 600,
      "೮": 601,
      "೯": 602,
      "അ": 603,
      "എ": 604,
      "ക": 605,
      "ത": 606,
      "ദ": 607,
      "ന": 608,
      "പ": 609,
      "മ": 610,
      "യ": 611,
      "ല": 612,
      "വ": 613,
      "ഷ": 614,
      "സ": 615,
      "න": 616,
      "ම": 617,
      "ර": 618,
      "ව": 619,
      "හ": 620,
      "ก": 621,
      "ข": 622,
      "ค": 623,
      "ฆ": 624,
      "ง": 625,
      "จ": 626,
      "ฉ": 627,
      "ช": 628,
      "ซ": 629,
      "ญ": 630,
      "ฎ": 631,
      "ฏ": 632,
      "ฐ": 633,
      "ฑ": 634,
      "ฒ": 635,
      "ณ": 636,
      "ด": 637,
      "ต": 638,
      "ถ": 639,
      "ท": 640,
      "ธ": 641,
      "น": 642,
      "บ": 643,
      "ป": 644,
      "ผ": 645,
      "ฝ": 646,
      "พ": 647,
      "ฟ": 648,
      "ภ": 649,
      "ม": 650,
      "ย": 651,
      "ร": 652,
      "ฤ": 653,
      "ล": 654,
      "ว": 655,
      "ศ": 656,
      "ษ": 657,
      "ส": 658,
      "ห": 659,
      "อ": 660,
      "ฮ": 661,
      "ฯ": 662,
      "ะ": 663,
      "า": 664,
      "ำ": 665,
      "฿": 666,
      "เ": 667,
      "แ": 668,
      "โ": 669,
      "ใ": 670,
      "ไ": 671,
      "ๆ": 672,
      "๑": 673,
      "ຂ": 674,
      "ຄ": 675,
      "ງ": 676,
      "ຈ": 677,
      "ດ": 678,
      "ຖ": 679,
      "ນ": 680,
      "ບ": 681,
      "ມ": 682,
      "ລ": 683,
      "ວ": 684,
      "າ": 685,
      "ຽ": 686,
      "ເ": 687,
      "ໜ": 688,
      "་": 689,
      "ཏ": 690,
      "ད": 691,
      "ན": 692,
      "བ": 693,
      "མ": 694,
      "ཚ": 695,
      "འ": 696,
      "ལ": 697,
      "ས": 698,
      "န": 699,
      "ရ": 700,
      "ဝ": 701,
      "သ": 702,
      "ဟ": 703,
      "ა": 704,
      "ბ": 705,
      "გ": 706,
      "დ": 707,
      "ე": 708,
      "ვ": 709,
      "ზ": 710,
      "თ": 711,
      "ი": 712,
      "კ": 713,
      "ლ": 714,
      "მ": 715,
      "ნ": 716,
      "ო": 717,
      "პ": 718,
      "რ": 719,
      "ს": 720,
      "ტ": 721,
      "უ": 722,
      "ქ": 723,
      "ღ": 724,
      "შ": 725,
      "ც": 726,
      "ძ": 727,
      "წ": 728,
      "ხ": 729,
      "ჯ": 730,
      "ᄀ": 731,
      "ᄁ": 732,
      "ᄂ": 733,
      "ᄃ": 734,
      "ᄅ": 735,
      "ᄆ": 736,
      "ᄇ": 737,
      "ᄉ": 738,
      "ᄋ": 739,
      "ᄌ": 740,
      "ᄍ": 741,
      "ᄎ": 742,
      "ᄏ": 743,
      "ᄐ": 744,
      "ᄑ": 745,
      "ᄒ": 746,
      "ᅡ": 747,
      "ᅢ": 748,
      "ᅣ": 749,
      "ᅥ": 750,
      "ᅦ": 751,
      "ᅧ": 752,
      "ᅨ": 753,
      "ᅩ": 754,
      "ᅪ": 755,
      "ᅬ": 756,
      "ᅭ": 757,
      "ᅮ": 758,
      "ᅯ": 759,
      "ᅰ": 760,
      "ᅱ": 761,
      "ᅲ": 762,
      "ᅳ": 763,
      "ᅵ": 764,
      "ᆨ": 765,
      "ᆫ": 766,
      "ᆯ": 767,
      "ᆷ": 768,
      "ᆸ": 769,
      "ᆻ": 770,
      "ᆼ": 771,
      "ᆾ": 772,
      "ህ": 773,
      "ሊ": 774,
      "ል": 775,
      "ሓ": 776,
      "ሕ": 777,
      "መ": 778,
      "ሙ": 779,
      "ሜ": 780,
      "ም": 781,
      "ሥ": 782,
      "ረ": 783,
      "ሪ": 784,
      "ራ": 785,
      "ር": 786,
      "ሰ": 787,
      "ሴ": 788,
      "ስ": 789,
      "ሻ": 790,
      "ሽ": 791,
      "ቀ": 792,
      "ቐ": 793,
      "በ": 794,
      "ቢ": 795,
      "ባ": 796,
      "ተ": 797,
      "ት": 798,
      "ቶ": 799,
      "ነ": 800,
      "ን": 801,
      "አ": 802,
      "ኣ": 803,
      "ኤ": 804,
      "እ": 805,
      "ኦ": 806,
      "ካ": 807,
      "ክ": 808,
      "ዋ": 809,
      "ው": 810,
      "ዓ": 811,
      "ዕ": 812,
      "የ": 813,
      "ይ": 814,
      "ደ": 815,
      "ዲ": 816,
      "ድ": 817,
      "ገ": 818,
      "ጋ": 819,
      "ጨ": 820,
      "ጽ": 821,
      "ፅ": 822,
      "ፈ": 823,
      "ፍ": 824,
      "፣": 825,
      "Ꭰ": 826,
      "Ꭲ": 827,
      "Ꮊ": 828,
      "ᐃ": 829,
      "ᐊ": 830,
      "ᑦ": 831,
      "ᑲ": 832,
      "ᒃ": 833,
      "ᒥ": 834,
      "ᓄ": 835,
      "ᓕ": 836,
      "ដ": 837,
      "ឋ": 838,
      "រ": 839,
      "ស": 840,
      "ហ": 841,
      "​": 842,
      "‌": 843,
      "‍": 844,
      "‎": 845,
      "‏": 846,
      "‐": 847,
      "‑": 848,
      "‒": 849,
      "–": 850,
      "—": 851,
      "―": 852,
      "‖": 853,
      "‘": 854,
      "’": 855,
      "‚": 856,
      "‛": 857,
      "“": 858,
      "”": 859,
      "„": 860,
      "‟": 861,
      "†": 862,
      "‡": 863,
      "•": 864,
      "…": 865,
      "‪": 866,
      "‬": 867,
      "‭": 868,
      "‰": 869,
      "′": 870,
      "″": 871,
      "‶": 872,
      "‹": 873,
      "›": 874,
      "※": 875,
      "‼": 876,
      "‽": 877,
      "⁄": 878,
      "⁴": 879,
      "ⁿ": 880,
      "₁": 881,
      "₂": 882,
      "₠": 883,
      "₣": 884,
      "₤": 885,
      "₩": 886,
      "₪": 887,
      "€": 888,
      "₴": 889,
      "₵": 890,
      "℃": 891,
      "ℓ": 892,
      "℔": 893,
      "№": 894,
      "™": 895,
      "℮": 896,
      "⅓": 897,
      "⅔": 898,
      "⅛": 899,
      "⅞": 900,
      "Ⅱ": 901,
      "Ⅲ": 902,
      "←": 903,
      "↑": 904,
      "→": 905,
      "↓": 906,
      "↔": 907,
      "↧": 908,
      "⇒": 909,
      "⇔": 910,
      "⇗": 911,
      "⇢": 912,
      "∀": 913,
      "∃": 914,
      "∈": 915,
      "∑": 916,
      "−": 917,
      "∙": 918,
      "√": 919,
      "∞": 920,
      "∫": 921,
      "∴": 922,
      "∶": 923,
      "∼": 924,
      "≈": 925,
      "≡": 926,
      "≤": 927,
      "≥": 928,
      "≪": 929,
      "≫": 930,
      "⋅": 931,
      "⌃": 932,
      "⌘": 933,
      "①": 934,
      "②": 935,
      "③": 936,
      "─": 937,
      "│": 938,
      "┌": 939,
      "┐": 940,
      "└": 941,
      "┘": 942,
      "┬": 943,
      "┴": 944,
      "╚": 945,
      "╞": 946,
      "╩": 947,
      "█": 948,
      "░": 949,
      "▒": 950,
      "■": 951,
      "□": 952,
      "▪": 953,
      "▲": 954,
      "△": 955,
      "▸": 956,
      "►": 957,
      "▼": 958,
      "◆": 959,
      "◇": 960,
      "◈": 961,
      "◊": 962,
      "○": 963,
      "◎": 964,
      "●": 965,
      "◙": 966,
      "◦": 967,
      "★": 968,
      "☆": 969,
      "☎": 970,
      "☏": 971,
      "☑": 972,
      "☯": 973,
      "☺": 974,
      "☻": 975,
      "☼": 976,
      "♀": 977,
      "♂": 978,
      "♠": 979,
      "♣": 980,
      "♥": 981,
      "♦": 982,
      "♪": 983,
      "♫": 984,
      "✿": 985,
      "➔": 986,
      "➚": 987,
      "➟": 988,
      "➲": 989,
      "Ⰶ": 990,
      "ⲉ": 991,
      "ⲟ": 992,
      "Ⲡ": 993,
      "ⲣ": 994,
      "ⲩ": 995,
      "、": 996,
      "。": 997,
      "々": 998,
      "《": 999,
      "》": 1000,
      "「": 1001,
      "」": 1002,
      "『": 1003,
      "』": 1004,
      "【": 1005,
      "】": 1006,
      "〔": 1007,
      "〕": 1008,
      "〜": 1009,
      "ぁ": 1010,
      "あ": 1011,
      "ぃ": 1012,
      "い": 1013,
      "う": 1014,
      "ぇ": 1015,
      "え": 1016,
      "お": 1017,
      "か": 1018,
      "き": 1019,
      "く": 1020,
      "け": 1021,
      "こ": 1022,
      "さ": 1023,
      "し": 1024,
      "す": 1025,
      "せ": 1026,
      "そ": 1027,
      "た": 1028,
      "ち": 1029,
      "っ": 1030,
      "つ": 1031,
      "て": 1032,
      "と": 1033,
      "な": 1034,
      "に": 1035,
      "ぬ": 1036,
      "ね": 1037,
      "の": 1038,
      "は": 1039,
      "ひ": 1040,
      "ふ": 1041,
      "へ": 1042,
      "ほ": 1043,
      "ま": 1044,
      "み": 1045,
      "む": 1046,
      "め": 1047,
      "も": 1048,
      "ゃ": 1049,
      "や": 1050,
      "ゅ": 1051,
      "ゆ": 1052,
      "ょ": 1053,
      "よ": 1054,
      "ら": 1055,
      "り": 1056,
      "る": 1057,
      "れ": 1058,
      "ろ": 1059,
      "わ": 1060,
      "ゐ": 1061,
      "ゑ": 1062,
      "を": 1063,
      "ん": 1064,
      "゛": 1065,
      "゜": 1066,
      "ァ": 1067,
      "ア": 1068,
      "ィ": 1069,
      "イ": 1070,
      "ゥ": 1071,
      "ウ": 1072,
      "ェ": 1073,
      "エ": 1074,
      "ォ": 1075,
      "オ": 1076,
      "カ": 1077,
      "キ": 1078,
      "ク": 1079,
      "ケ": 1080,
      "コ": 1081,
      "サ": 1082,
      "シ": 1083,
      "ス": 1084,
      "セ": 1085,
      "ソ": 1086,
      "タ": 1087,
      "チ": 1088,
      "ッ": 1089,
      "ツ": 1090,
      "テ": 1091,
      "ト": 1092,
      "ナ": 1093,
      "ニ": 1094,
      "ヌ": 1095,
      "ネ": 1096,
      "ノ": 1097,
      "ハ": 1098,
      "ヒ": 1099,
      "フ": 1100,
      "ヘ": 1101,
      "ホ": 1102,
      "マ": 1103,
      "ミ": 1104,
      "ム": 1105,
      "メ": 1106,
      "モ": 1107,
      "ャ": 1108,
      "ヤ": 1109,
      "ュ": 1110,
      "ユ": 1111,
      "ョ": 1112,
      "ヨ": 1113,
      "ラ": 1114,
      "リ": 1115,
      "ル": 1116,
      "レ": 1117,
      "ロ": 1118,
      "ワ": 1119,
      "ン": 1120,
      "・": 1121,
      "ー": 1122,
      "ㄅ": 1123,
      "ㄆ": 1124,
      "ㄇ": 1125,
      "ㄈ": 1126,
      "ㄤ": 1127,
      "ㄧ": 1128,
      "ㅓ": 1129,
      "ㅔ": 1130,
      "ㅕ": 1131,
      "ㅖ": 1132,
      "ㅡ": 1133,
      "ㅣ": 1134,
      "㎡": 1135,
      "䟩": 1136,
      "一": 1137,
      "七": 1138,
      "万": 1139,
      "丈": 1140,
      "三": 1141,
      "上": 1142,
      "下": 1143,
      "不": 1144,
      "与": 1145,
      "专": 1146,
      "世": 1147,
      "丘": 1148,
      "业": 1149,
      "东": 1150,
      "两": 1151,
      "丨": 1152,
      "个": 1153,
      "中": 1154,
      "临": 1155,
      "丸": 1156,
      "丹": 1157,
      "为": 1158,
      "主": 1159,
      "丼": 1160,
      "丽": 1161,
      "举": 1162,
      "久": 1163,
      "义": 1164,
      "之": 1165,
      "乌": 1166,
      "乎": 1167,
      "乏": 1168,
      "乐": 1169,
      "乗": 1170,
      "乘": 1171,
      "乙": 1172,
      "九": 1173,
      "也": 1174,
      "习": 1175,
      "乡": 1176,
      "书": 1177,
      "乱": 1178,
      "乾": 1179,
      "了": 1180,
      "争": 1181,
      "事": 1182,
      "二": 1183,
      "于": 1184,
      "云": 1185,
      "互": 1186,
      "五": 1187,
      "井": 1188,
      "亚": 1189,
      "些": 1190,
      "亜": 1191,
      "亞": 1192,
      "交": 1193,
      "产": 1194,
      "亨": 1195,
      "京": 1196,
      "人": 1197,
      "亿": 1198,
      "什": 1199,
      "仁": 1200,
      "仅": 1201,
      "今": 1202,
      "介": 1203,
      "仍": 1204,
      "从": 1205,
      "他": 1206,
      "付": 1207,
      "仙": 1208,
      "仝": 1209,
      "代": 1210,
      "以": 1211,
      "仪": 1212,
      "仮": 1213,
      "仲": 1214,
      "件": 1215,
      "价": 1216,
      "任": 1217,
      "伊": 1218,
      "伎": 1219,
      "伏": 1220,
      "伐": 1221,
      "休": 1222,
      "众": 1223,
      "优": 1224,
      "会": 1225,
      "伝": 1226,
      "伟": 1227,
      "传": 1228,
      "伦": 1229,
      "伯": 1230,
      "估": 1231,
      "伴": 1232,
      "伸": 1233,
      "但": 1234,
      "位": 1235,
      "低": 1236,
      "住": 1237,
      "佐": 1238,
      "佑": 1239,
      "体": 1240,
      "何": 1241,
      "佗": 1242,
      "余": 1243,
      "作": 1244,
      "你": 1245,
      "佰": 1246,
      "使": 1247,
      "侍": 1248,
      "依": 1249,
      "便": 1250,
      "俄": 1251,
      "俊": 1252,
      "保": 1253,
      "信": 1254,
      "修": 1255,
      "倉": 1256,
      "個": 1257,
      "倍": 1258,
      "倒": 1259,
      "值": 1260,
      "假": 1261,
      "做": 1262,
      "健": 1263,
      "側": 1264,
      "備": 1265,
      "储": 1266,
      "傳": 1267,
      "傷": 1268,
      "働": 1269,
      "像": 1270,
      "僕": 1271,
      "儀": 1272,
      "儉": 1273,
      "元": 1274,
      "先": 1275,
      "光": 1276,
      "克": 1277,
      "免": 1278,
      "入": 1279,
      "內": 1280,
      "全": 1281,
      "兩": 1282,
      "八": 1283,
      "公": 1284,
      "六": 1285,
      "共": 1286,
      "关": 1287,
      "兴": 1288,
      "兵": 1289,
      "其": 1290,
      "具": 1291,
      "内": 1292,
      "円": 1293,
      "冊": 1294,
      "册": 1295,
      "写": 1296,
      "农": 1297,
      "冤": 1298,
      "冰": 1299,
      "决": 1300,
      "况": 1301,
      "冷": 1302,
      "净": 1303,
      "凄": 1304,
      "准": 1305,
      "凉": 1306,
      "凍": 1307,
      "减": 1308,
      "几": 1309,
      "凶": 1310,
      "出": 1311,
      "函": 1312,
      "刀": 1313,
      "分": 1314,
      "切": 1315,
      "刑": 1316,
      "列": 1317,
      "刘": 1318,
      "则": 1319,
      "刚": 1320,
      "创": 1321,
      "判": 1322,
      "別": 1323,
      "刨": 1324,
      "利": 1325,
      "别": 1326,
      "到": 1327,
      "制": 1328,
      "刺": 1329,
      "則": 1330,
      "前": 1331,
      "剑": 1332,
      "剣": 1333,
      "剥": 1334,
      "剧": 1335,
      "副": 1336,
      "割": 1337,
      "創": 1338,
      "劇": 1339,
      "劉": 1340,
      "力": 1341,
      "功": 1342,
      "加": 1343,
      "务": 1344,
      "动": 1345,
      "助": 1346,
      "势": 1347,
      "動": 1348,
      "勝": 1349,
      "勞": 1350,
      "勢": 1351,
      "勧": 1352,
      "勿": 1353,
      "包": 1354,
      "化": 1355,
      "北": 1356,
      "匠": 1357,
      "匡": 1358,
      "匹": 1359,
      "区": 1360,
      "医": 1361,
      "匿": 1362,
      "區": 1363,
      "十": 1364,
      "千": 1365,
      "升": 1366,
      "半": 1367,
      "卍": 1368,
      "华": 1369,
      "协": 1370,
      "卐": 1371,
      "卓": 1372,
      "单": 1373,
      "卖": 1374,
      "南": 1375,
      "博": 1376,
      "卡": 1377,
      "卦": 1378,
      "印": 1379,
      "危": 1380,
      "即": 1381,
      "却": 1382,
      "厂": 1383,
      "原": 1384,
      "去": 1385,
      "县": 1386,
      "参": 1387,
      "參": 1388,
      "及": 1389,
      "友": 1390,
      "双": 1391,
      "反": 1392,
      "发": 1393,
      "取": 1394,
      "受": 1395,
      "变": 1396,
      "叡": 1397,
      "口": 1398,
      "古": 1399,
      "只": 1400,
      "叫": 1401,
      "召": 1402,
      "可": 1403,
      "台": 1404,
      "史": 1405,
      "右": 1406,
      "号": 1407,
      "司": 1408,
      "吃": 1409,
      "合": 1410,
      "吉": 1411,
      "吊": 1412,
      "同": 1413,
      "名": 1414,
      "后": 1415,
      "向": 1416,
      "吗": 1417,
      "君": 1418,
      "否": 1419,
      "吧": 1420,
      "含": 1421,
      "听": 1422,
      "吳": 1423,
      "吴": 1424,
      "吸": 1425,
      "吹": 1426,
      "吾": 1427,
      "呀": 1428,
      "呂": 1429,
      "呆": 1430,
      "呉": 1431,
      "告": 1432,
      "呑": 1433,
      "员": 1434,
      "周": 1435,
      "味": 1436,
      "呼": 1437,
      "命": 1438,
      "咆": 1439,
      "和": 1440,
      "咬": 1441,
      "品": 1442,
      "哈": 1443,
      "員": 1444,
      "哥": 1445,
      "哮": 1446,
      "哲": 1447,
      "唐": 1448,
      "售": 1449,
      "唸": 1450,
      "商": 1451,
      "問": 1452,
      "啤": 1453,
      "啦": 1454,
      "喀": 1455,
      "喂": 1456,
      "喇": 1457,
      "喜": 1458,
      "喫": 1459,
      "嗣": 1460,
      "嘉": 1461,
      "嘛": 1462,
      "嘟": 1463,
      "噌": 1464,
      "噛": 1465,
      "器": 1466,
      "嚴": 1467,
      "四": 1468,
      "回": 1469,
      "因": 1470,
      "団": 1471,
      "囧": 1472,
      "园": 1473,
      "固": 1474,
      "国": 1475,
      "图": 1476,
      "圆": 1477,
      "國": 1478,
      "圍": 1479,
      "圏": 1480,
      "園": 1481,
      "圓": 1482,
      "圖": 1483,
      "土": 1484,
      "在": 1485,
      "地": 1486,
      "圳": 1487,
      "场": 1488,
      "址": 1489,
      "坂": 1490,
      "均": 1491,
      "坊": 1492,
      "坐": 1493,
      "块": 1494,
      "坛": 1495,
      "坝": 1496,
      "坡": 1497,
      "坤": 1498,
      "坪": 1499,
      "型": 1500,
      "垣": 1501,
      "城": 1502,
      "埔": 1503,
      "域": 1504,
      "基": 1505,
      "堂": 1506,
      "堆": 1507,
      "堤": 1508,
      "堰": 1509,
      "報": 1510,
      "場": 1511,
      "塊": 1512,
      "塔": 1513,
      "塗": 1514,
      "塩": 1515,
      "塾": 1516,
      "増": 1517,
      "墟": 1518,
      "墩": 1519,
      "壊": 1520,
      "士": 1521,
      "壮": 1522,
      "売": 1523,
      "壳": 1524,
      "壹": 1525,
      "壽": 1526,
      "处": 1527,
      "备": 1528,
      "変": 1529,
      "复": 1530,
      "夏": 1531,
      "夕": 1532,
      "外": 1533,
      "多": 1534,
      "夛": 1535,
      "夜": 1536,
      "夢": 1537,
      "大": 1538,
      "天": 1539,
      "太": 1540,
      "夫": 1541,
      "央": 1542,
      "头": 1543,
      "夷": 1544,
      "夹": 1545,
      "奄": 1546,
      "奇": 1547,
      "奈": 1548,
      "奉": 1549,
      "套": 1550,
      "奘": 1551,
      "奚": 1552,
      "奥": 1553,
      "女": 1554,
      "奶": 1555,
      "奸": 1556,
      "好": 1557,
      "如": 1558,
      "妖": 1559,
      "妤": 1560,
      "妻": 1561,
      "始": 1562,
      "委": 1563,
      "姦": 1564,
      "威": 1565,
      "娃": 1566,
      "娄": 1567,
      "娜": 1568,
      "娣": 1569,
      "娥": 1570,
      "娱": 1571,
      "婁": 1572,
      "婦": 1573,
      "婷": 1574,
      "媛": 1575,
      "嫌": 1576,
      "子": 1577,
      "字": 1578,
      "存": 1579,
      "季": 1580,
      "学": 1581,
      "孴": 1582,
      "學": 1583,
      "宁": 1584,
      "宇": 1585,
      "安": 1586,
      "宋": 1587,
      "完": 1588,
      "宏": 1589,
      "宗": 1590,
      "官": 1591,
      "定": 1592,
      "宜": 1593,
      "宝": 1594,
      "实": 1595,
      "実": 1596,
      "客": 1597,
      "宣": 1598,
      "室": 1599,
      "宫": 1600,
      "宮": 1601,
      "宰": 1602,
      "家": 1603,
      "容": 1604,
      "宿": 1605,
      "寄": 1606,
      "密": 1607,
      "富": 1608,
      "寤": 1609,
      "實": 1610,
      "寧": 1611,
      "寨": 1612,
      "寳": 1613,
      "寶": 1614,
      "寸": 1615,
      "对": 1616,
      "寺": 1617,
      "寻": 1618,
      "寿": 1619,
      "専": 1620,
      "将": 1621,
      "小": 1622,
      "少": 1623,
      "尔": 1624,
      "尘": 1625,
      "就": 1626,
      "尽": 1627,
      "尾": 1628,
      "尿": 1629,
      "局": 1630,
      "屄": 1631,
      "居": 1632,
      "屈": 1633,
      "届": 1634,
      "屋": 1635,
      "屏": 1636,
      "展": 1637,
      "属": 1638,
      "屯": 1639,
      "山": 1640,
      "屿": 1641,
      "岐": 1642,
      "岗": 1643,
      "岛": 1644,
      "岡": 1645,
      "岩": 1646,
      "岭": 1647,
      "岳": 1648,
      "岷": 1649,
      "岸": 1650,
      "島": 1651,
      "峽": 1652,
      "崎": 1653,
      "崔": 1654,
      "崖": 1655,
      "崩": 1656,
      "嵥": 1657,
      "嶺": 1658,
      "嶼": 1659,
      "川": 1660,
      "州": 1661,
      "工": 1662,
      "左": 1663,
      "巧": 1664,
      "巨": 1665,
      "己": 1666,
      "已": 1667,
      "巴": 1668,
      "巻": 1669,
      "市": 1670,
      "布": 1671,
      "师": 1672,
      "希": 1673,
      "帝": 1674,
      "帥": 1675,
      "師": 1676,
      "席": 1677,
      "帯": 1678,
      "常": 1679,
      "幌": 1680,
      "幡": 1681,
      "幣": 1682,
      "干": 1683,
      "平": 1684,
      "年": 1685,
      "并": 1686,
      "幸": 1687,
      "幹": 1688,
      "幾": 1689,
      "广": 1690,
      "庁": 1691,
      "広": 1692,
      "庄": 1693,
      "庆": 1694,
      "序": 1695,
      "库": 1696,
      "应": 1697,
      "底": 1698,
      "店": 1699,
      "庚": 1700,
      "府": 1701,
      "度": 1702,
      "座": 1703,
      "庫": 1704,
      "庭": 1705,
      "康": 1706,
      "廃": 1707,
      "廣": 1708,
      "建": 1709,
      "开": 1710,
      "弁": 1711,
      "弄": 1712,
      "式": 1713,
      "弓": 1714,
      "弔": 1715,
      "引": 1716,
      "张": 1717,
      "弦": 1718,
      "張": 1719,
      "强": 1720,
      "当": 1721,
      "形": 1722,
      "彩": 1723,
      "彭": 1724,
      "彰": 1725,
      "影": 1726,
      "役": 1727,
      "彻": 1728,
      "彼": 1729,
      "征": 1730,
      "待": 1731,
      "很": 1732,
      "律": 1733,
      "後": 1734,
      "徐": 1735,
      "徒": 1736,
      "得": 1737,
      "御": 1738,
      "復": 1739,
      "微": 1740,
      "徳": 1741,
      "德": 1742,
      "徹": 1743,
      "徽": 1744,
      "心": 1745,
      "必": 1746,
      "忆": 1747,
      "忍": 1748,
      "志": 1749,
      "忘": 1750,
      "応": 1751,
      "忠": 1752,
      "快": 1753,
      "念": 1754,
      "忻": 1755,
      "态": 1756,
      "怒": 1757,
      "思": 1758,
      "怡": 1759,
      "急": 1760,
      "性": 1761,
      "怪": 1762,
      "恋": 1763,
      "恢": 1764,
      "恩": 1765,
      "息": 1766,
      "恵": 1767,
      "悟": 1768,
      "悠": 1769,
      "患": 1770,
      "您": 1771,
      "悩": 1772,
      "悪": 1773,
      "悬": 1774,
      "情": 1775,
      "惑": 1776,
      "惠": 1777,
      "惧": 1778,
      "惯": 1779,
      "想": 1780,
      "意": 1781,
      "愛": 1782,
      "慈": 1783,
      "態": 1784,
      "慎": 1785,
      "慢": 1786,
      "慣": 1787,
      "慶": 1788,
      "憎": 1789,
      "憨": 1790,
      "憩": 1791,
      "憶": 1792,
      "憾": 1793,
      "應": 1794,
      "成": 1795,
      "我": 1796,
      "戒": 1797,
      "或": 1798,
      "截": 1799,
      "戴": 1800,
      "戶": 1801,
      "户": 1802,
      "戸": 1803,
      "戻": 1804,
      "房": 1805,
      "所": 1806,
      "扈": 1807,
      "手": 1808,
      "才": 1809,
      "打": 1810,
      "払": 1811,
      "找": 1812,
      "承": 1813,
      "技": 1814,
      "投": 1815,
      "折": 1816,
      "抜": 1817,
      "护": 1818,
      "报": 1819,
      "抹": 1820,
      "押": 1821,
      "担": 1822,
      "拉": 1823,
      "拒": 1824,
      "拓": 1825,
      "招": 1826,
      "拟": 1827,
      "择": 1828,
      "括": 1829,
      "拳": 1830,
      "拼": 1831,
      "拿": 1832,
      "持": 1833,
      "挂": 1834,
      "指": 1835,
      "按": 1836,
      "挑": 1837,
      "挡": 1838,
      "振": 1839,
      "损": 1840,
      "据": 1841,
      "捷": 1842,
      "掉": 1843,
      "排": 1844,
      "掛": 1845,
      "採": 1846,
      "探": 1847,
      "接": 1848,
      "控": 1849,
      "推": 1850,
      "掻": 1851,
      "揂": 1852,
      "揃": 1853,
      "提": 1854,
      "揚": 1855,
      "換": 1856,
      "握": 1857,
      "援": 1858,
      "搅": 1859,
      "損": 1860,
      "搜": 1861,
      "搞": 1862,
      "携": 1863,
      "摂": 1864,
      "摇": 1865,
      "摩": 1866,
      "撤": 1867,
      "撫": 1868,
      "撮": 1869,
      "操": 1870,
      "支": 1871,
      "收": 1872,
      "改": 1873,
      "攻": 1874,
      "放": 1875,
      "政": 1876,
      "故": 1877,
      "敏": 1878,
      "救": 1879,
      "教": 1880,
      "散": 1881,
      "敦": 1882,
      "敬": 1883,
      "数": 1884,
      "整": 1885,
      "文": 1886,
      "斗": 1887,
      "料": 1888,
      "斯": 1889,
      "新": 1890,
      "方": 1891,
      "施": 1892,
      "旅": 1893,
      "旋": 1894,
      "族": 1895,
      "无": 1896,
      "日": 1897,
      "旧": 1898,
      "旨": 1899,
      "旭": 1900,
      "时": 1901,
      "昇": 1902,
      "昌": 1903,
      "明": 1904,
      "易": 1905,
      "星": 1906,
      "映": 1907,
      "春": 1908,
      "昭": 1909,
      "是": 1910,
      "显": 1911,
      "時": 1912,
      "晏": 1913,
      "晨": 1914,
      "普": 1915,
      "景": 1916,
      "智": 1917,
      "暂": 1918,
      "暨": 1919,
      "暫": 1920,
      "暴": 1921,
      "曌": 1922,
      "曝": 1923,
      "更": 1924,
      "書": 1925,
      "曹": 1926,
      "曾": 1927,
      "最": 1928,
      "會": 1929,
      "月": 1930,
      "有": 1931,
      "朔": 1932,
      "朗": 1933,
      "望": 1934,
      "朝": 1935,
      "期": 1936,
      "木": 1937,
      "末": 1938,
      "本": 1939,
      "札": 1940,
      "术": 1941,
      "朱": 1942,
      "机": 1943,
      "李": 1944,
      "杏": 1945,
      "材": 1946,
      "村": 1947,
      "条": 1948,
      "来": 1949,
      "杨": 1950,
      "杭": 1951,
      "東": 1952,
      "松": 1953,
      "板": 1954,
      "极": 1955,
      "构": 1956,
      "析": 1957,
      "林": 1958,
      "枚": 1959,
      "果": 1960,
      "枡": 1961,
      "枫": 1962,
      "架": 1963,
      "某": 1964,
      "染": 1965,
      "柔": 1966,
      "查": 1967,
      "柱": 1968,
      "柴": 1969,
      "标": 1970,
      "树": 1971,
      "校": 1972,
      "株": 1973,
      "样": 1974,
      "核": 1975,
      "根": 1976,
      "格": 1977,
      "栽": 1978,
      "桂": 1979,
      "桃": 1980,
      "框": 1981,
      "案": 1982,
      "桓": 1983,
      "桜": 1984,
      "桥": 1985,
      "桩": 1986,
      "桶": 1987,
      "梁": 1988,
      "梅": 1989,
      "梨": 1990,
      "检": 1991,
      "森": 1992,
      "棲": 1993,
      "椅": 1994,
      "植": 1995,
      "検": 1996,
      "楠": 1997,
      "業": 1998,
      "極": 1999,
      "楼": 2000,
      "楽": 2001,
      "樓": 2002,
      "標": 2003,
      "模": 2004,
      "横": 2005,
      "樱": 2006,
      "樹": 2007,
      "橋": 2008,
      "機": 2009,
      "橿": 2010,
      "檀": 2011,
      "次": 2012,
      "欢": 2013,
      "款": 2014,
      "歌": 2015,
      "止": 2016,
      "正": 2017,
      "此": 2018,
      "步": 2019,
      "武": 2020,
      "歩": 2021,
      "歳": 2022,
      "歸": 2023,
      "死": 2024,
      "殊": 2025,
      "段": 2026,
      "殷": 2027,
      "殻": 2028,
      "殿": 2029,
      "毁": 2030,
      "母": 2031,
      "毎": 2032,
      "每": 2033,
      "毓": 2034,
      "比": 2035,
      "毛": 2036,
      "氏": 2037,
      "民": 2038,
      "气": 2039,
      "気": 2040,
      "氣": 2041,
      "水": 2042,
      "氷": 2043,
      "永": 2044,
      "汁": 2045,
      "求": 2046,
      "汇": 2047,
      "汉": 2048,
      "汕": 2049,
      "江": 2050,
      "池": 2051,
      "汤": 2052,
      "汴": 2053,
      "決": 2054,
      "沈": 2055,
      "沌": 2056,
      "沙": 2057,
      "沛": 2058,
      "没": 2059,
      "沢": 2060,
      "沪": 2061,
      "沱": 2062,
      "河": 2063,
      "油": 2064,
      "治": 2065,
      "沿": 2066,
      "況": 2067,
      "泉": 2068,
      "泊": 2069,
      "法": 2070,
      "波": 2071,
      "泥": 2072,
      "注": 2073,
      "泰": 2074,
      "泽": 2075,
      "洋": 2076,
      "洒": 2077,
      "洗": 2078,
      "洛": 2079,
      "洞": 2080,
      "洪": 2081,
      "洲": 2082,
      "活": 2083,
      "派": 2084,
      "流": 2085,
      "浄": 2086,
      "测": 2087,
      "济": 2088,
      "浙": 2089,
      "浜": 2090,
      "浦": 2091,
      "浮": 2092,
      "浴": 2093,
      "海": 2094,
      "涂": 2095,
      "消": 2096,
      "涩": 2097,
      "淡": 2098,
      "淫": 2099,
      "深": 2100,
      "混": 2101,
      "淹": 2102,
      "清": 2103,
      "済": 2104,
      "渋": 2105,
      "減": 2106,
      "渝": 2107,
      "渡": 2108,
      "温": 2109,
      "港": 2110,
      "渲": 2111,
      "游": 2112,
      "湖": 2113,
      "湘": 2114,
      "湯": 2115,
      "湾": 2116,
      "満": 2117,
      "溜": 2118,
      "溝": 2119,
      "溢": 2120,
      "溥": 2121,
      "溪": 2122,
      "溫": 2123,
      "溶": 2124,
      "滇": 2125,
      "滞": 2126,
      "滨": 2127,
      "滬": 2128,
      "漢": 2129,
      "漫": 2130,
      "潟": 2131,
      "潢": 2132,
      "潭": 2133,
      "潮": 2134,
      "澄": 2135,
      "澎": 2136,
      "澤": 2137,
      "澳": 2138,
      "激": 2139,
      "濟": 2140,
      "濱": 2141,
      "灣": 2142,
      "火": 2143,
      "灯": 2144,
      "灰": 2145,
      "灾": 2146,
      "炎": 2147,
      "炯": 2148,
      "点": 2149,
      "為": 2150,
      "烈": 2151,
      "烏": 2152,
      "烦": 2153,
      "烧": 2154,
      "热": 2155,
      "無": 2156,
      "然": 2157,
      "焼": 2158,
      "煙": 2159,
      "照": 2160,
      "煩": 2161,
      "煮": 2162,
      "熊": 2163,
      "熟": 2164,
      "熨": 2165,
      "熱": 2166,
      "燕": 2167,
      "燗": 2168,
      "爆": 2169,
      "爛": 2170,
      "爪": 2171,
      "爱": 2172,
      "父": 2173,
      "爻": 2174,
      "爾": 2175,
      "片": 2176,
      "版": 2177,
      "牌": 2178,
      "牙": 2179,
      "牛": 2180,
      "物": 2181,
      "特": 2182,
      "状": 2183,
      "狐": 2184,
      "狗": 2185,
      "独": 2186,
      "狭": 2187,
      "献": 2188,
      "獄": 2189,
      "獲": 2190,
      "玄": 2191,
      "率": 2192,
      "玉": 2193,
      "王": 2194,
      "环": 2195,
      "现": 2196,
      "玲": 2197,
      "珈": 2198,
      "珍": 2199,
      "珠": 2200,
      "班": 2201,
      "球": 2202,
      "理": 2203,
      "琢": 2204,
      "琲": 2205,
      "瑠": 2206,
      "瑩": 2207,
      "璃": 2208,
      "璐": 2209,
      "環": 2210,
      "瓊": 2211,
      "瓶": 2212,
      "甜": 2213,
      "生": 2214,
      "用": 2215,
      "田": 2216,
      "由": 2217,
      "甲": 2218,
      "申": 2219,
      "电": 2220,
      "男": 2221,
      "甸": 2222,
      "町": 2223,
      "画": 2224,
      "界": 2225,
      "留": 2226,
      "畢": 2227,
      "略": 2228,
      "番": 2229,
      "畿": 2230,
      "疆": 2231,
      "疑": 2232,
      "疗": 2233,
      "疫": 2234,
      "病": 2235,
      "痛": 2236,
      "痴": 2237,
      "癌": 2238,
      "癪": 2239,
      "発": 2240,
      "登": 2241,
      "白": 2242,
      "百": 2243,
      "的": 2244,
      "皇": 2245,
      "皮": 2246,
      "盆": 2247,
      "益": 2248,
      "监": 2249,
      "盖": 2250,
      "盗": 2251,
      "盛": 2252,
      "監": 2253,
      "盧": 2254,
      "目": 2255,
      "直": 2256,
      "相": 2257,
      "省": 2258,
      "看": 2259,
      "県": 2260,
      "真": 2261,
      "眩": 2262,
      "眼": 2263,
      "着": 2264,
      "睛": 2265,
      "睦": 2266,
      "瞎": 2267,
      "瞳": 2268,
      "瞻": 2269,
      "矢": 2270,
      "知": 2271,
      "石": 2272,
      "码": 2273,
      "砂": 2274,
      "砕": 2275,
      "破": 2276,
      "硝": 2277,
      "硬": 2278,
      "确": 2279,
      "碁": 2280,
      "碧": 2281,
      "確": 2282,
      "磁": 2283,
      "磨": 2284,
      "礱": 2285,
      "示": 2286,
      "礼": 2287,
      "社": 2288,
      "祖": 2289,
      "祝": 2290,
      "神": 2291,
      "票": 2292,
      "祭": 2293,
      "祸": 2294,
      "祿": 2295,
      "禁": 2296,
      "禅": 2297,
      "福": 2298,
      "禪": 2299,
      "禹": 2300,
      "秀": 2301,
      "私": 2302,
      "秉": 2303,
      "秋": 2304,
      "种": 2305,
      "科": 2306,
      "租": 2307,
      "秦": 2308,
      "积": 2309,
      "称": 2310,
      "移": 2311,
      "稅": 2312,
      "程": 2313,
      "税": 2314,
      "稱": 2315,
      "稲": 2316,
      "稼": 2317,
      "稿": 2318,
      "空": 2319,
      "立": 2320,
      "站": 2321,
      "竜": 2322,
      "竞": 2323,
      "章": 2324,
      "端": 2325,
      "競": 2326,
      "竹": 2327,
      "笠": 2328,
      "第": 2329,
      "筆": 2330,
      "等": 2331,
      "筑": 2332,
      "答": 2333,
      "签": 2334,
      "简": 2335,
      "箍": 2336,
      "箕": 2337,
      "管": 2338,
      "箱": 2339,
      "節": 2340,
      "篇": 2341,
      "簡": 2342,
      "米": 2343,
      "粉": 2344,
      "粤": 2345,
      "粵": 2346,
      "精": 2347,
      "糖": 2348,
      "糸": 2349,
      "系": 2350,
      "紀": 2351,
      "紂": 2352,
      "紅": 2353,
      "紋": 2354,
      "納": 2355,
      "純": 2356,
      "紙": 2357,
      "級": 2358,
      "素": 2359,
      "索": 2360,
      "紧": 2361,
      "細": 2362,
      "紹": 2363,
      "終": 2364,
      "経": 2365,
      "結": 2366,
      "絞": 2367,
      "統": 2368,
      "經": 2369,
      "継": 2370,
      "続": 2371,
      "網": 2372,
      "綺": 2373,
      "総": 2374,
      "線": 2375,
      "縣": 2376,
      "縮": 2377,
      "繁": 2378,
      "織": 2379,
      "红": 2380,
      "约": 2381,
      "级": 2382,
      "纸": 2383,
      "纹": 2384,
      "纽": 2385,
      "线": 2386,
      "细": 2387,
      "终": 2388,
      "绍": 2389,
      "经": 2390,
      "绝": 2391,
      "绞": 2392,
      "统": 2393,
      "绪": 2394,
      "维": 2395,
      "网": 2396,
      "罗": 2397,
      "罪": 2398,
      "置": 2399,
      "署": 2400,
      "羅": 2401,
      "美": 2402,
      "群": 2403,
      "義": 2404,
      "羲": 2405,
      "羽": 2406,
      "翁": 2407,
      "習": 2408,
      "翠": 2409,
      "翻": 2410,
      "翼": 2411,
      "耀": 2412,
      "老": 2413,
      "考": 2414,
      "者": 2415,
      "而": 2416,
      "耐": 2417,
      "耳": 2418,
      "耶": 2419,
      "耸": 2420,
      "联": 2421,
      "聖": 2422,
      "聞": 2423,
      "聼": 2424,
      "肉": 2425,
      "股": 2426,
      "肥": 2427,
      "育": 2428,
      "背": 2429,
      "胖": 2430,
      "胜": 2431,
      "胞": 2432,
      "胡": 2433,
      "能": 2434,
      "脑": 2435,
      "脖": 2436,
      "脚": 2437,
      "脱": 2438,
      "腔": 2439,
      "腕": 2440,
      "腰": 2441,
      "腹": 2442,
      "腺": 2443,
      "膚": 2444,
      "臂": 2445,
      "臈": 2446,
      "臓": 2447,
      "臘": 2448,
      "臣": 2449,
      "臧": 2450,
      "臨": 2451,
      "自": 2452,
      "至": 2453,
      "致": 2454,
      "臺": 2455,
      "舁": 2456,
      "舅": 2457,
      "興": 2458,
      "舊": 2459,
      "舍": 2460,
      "舐": 2461,
      "舖": 2462,
      "舞": 2463,
      "舣": 2464,
      "舩": 2465,
      "航": 2466,
      "舫": 2467,
      "般": 2468,
      "艮": 2469,
      "良": 2470,
      "色": 2471,
      "艳": 2472,
      "节": 2473,
      "芋": 2474,
      "芝": 2475,
      "芦": 2476,
      "花": 2477,
      "苏": 2478,
      "苑": 2479,
      "若": 2480,
      "英": 2481,
      "茂": 2482,
      "茜": 2483,
      "茨": 2484,
      "茶": 2485,
      "草": 2486,
      "荣": 2487,
      "荷": 2488,
      "莉": 2489,
      "莞": 2490,
      "莨": 2491,
      "莲": 2492,
      "获": 2493,
      "莹": 2494,
      "菜": 2495,
      "菩": 2496,
      "華": 2497,
      "菱": 2498,
      "萄": 2499,
      "萧": 2500,
      "萬": 2501,
      "落": 2502,
      "葉": 2503,
      "著": 2504,
      "葡": 2505,
      "董": 2506,
      "蒋": 2507,
      "蒸": 2508,
      "蓋": 2509,
      "蓟": 2510,
      "蓮": 2511,
      "蔓": 2512,
      "蔚": 2513,
      "蔣": 2514,
      "蕭": 2515,
      "薇": 2516,
      "薊": 2517,
      "薔": 2518,
      "薬": 2519,
      "藍": 2520,
      "藏": 2521,
      "藕": 2522,
      "藤": 2523,
      "蘇": 2524,
      "虑": 2525,
      "號": 2526,
      "蛋": 2527,
      "蜀": 2528,
      "蝦": 2529,
      "螨": 2530,
      "螳": 2531,
      "螺": 2532,
      "蟲": 2533,
      "血": 2534,
      "衆": 2535,
      "行": 2536,
      "術": 2537,
      "街": 2538,
      "衡": 2539,
      "衣": 2540,
      "表": 2541,
      "裂": 2542,
      "装": 2543,
      "裕": 2544,
      "製": 2545,
      "西": 2546,
      "要": 2547,
      "見": 2548,
      "視": 2549,
      "覧": 2550,
      "親": 2551,
      "観": 2552,
      "覺": 2553,
      "见": 2554,
      "观": 2555,
      "视": 2556,
      "觉": 2557,
      "角": 2558,
      "解": 2559,
      "言": 2560,
      "訃": 2561,
      "訊": 2562,
      "討": 2563,
      "訓": 2564,
      "記": 2565,
      "設": 2566,
      "許": 2567,
      "訳": 2568,
      "詠": 2569,
      "試": 2570,
      "詩": 2571,
      "詰": 2572,
      "話": 2573,
      "詳": 2574,
      "詹": 2575,
      "誓": 2576,
      "語": 2577,
      "說": 2578,
      "説": 2579,
      "読": 2580,
      "調": 2581,
      "談": 2582,
      "請": 2583,
      "論": 2584,
      "諸": 2585,
      "謑": 2586,
      "證": 2587,
      "警": 2588,
      "譯": 2589,
      "護": 2590,
      "讃": 2591,
      "變": 2592,
      "计": 2593,
      "讣": 2594,
      "讨": 2595,
      "议": 2596,
      "讯": 2597,
      "记": 2598,
      "讲": 2599,
      "许": 2600,
      "论": 2601,
      "讼": 2602,
      "设": 2603,
      "证": 2604,
      "评": 2605,
      "识": 2606,
      "诉": 2607,
      "译": 2608,
      "试": 2609,
      "诘": 2610,
      "话": 2611,
      "该": 2612,
      "详": 2613,
      "语": 2614,
      "说": 2615,
      "请": 2616,
      "课": 2617,
      "调": 2618,
      "谈": 2619,
      "谋": 2620,
      "谢": 2621,
      "谷": 2622,
      "豆": 2623,
      "豊": 2624,
      "豐": 2625,
      "豫": 2626,
      "貌": 2627,
      "負": 2628,
      "財": 2629,
      "貢": 2630,
      "販": 2631,
      "貮": 2632,
      "貰": 2633,
      "貴": 2634,
      "貸": 2635,
      "費": 2636,
      "賀": 2637,
      "資": 2638,
      "賈": 2639,
      "賢": 2640,
      "贊": 2641,
      "贞": 2642,
      "负": 2643,
      "贡": 2644,
      "贤": 2645,
      "货": 2646,
      "质": 2647,
      "购": 2648,
      "贱": 2649,
      "贳": 2650,
      "贷": 2651,
      "费": 2652,
      "资": 2653,
      "赌": 2654,
      "赖": 2655,
      "赛": 2656,
      "赞": 2657,
      "赤": 2658,
      "赵": 2659,
      "赶": 2660,
      "起": 2661,
      "超": 2662,
      "越": 2663,
      "趙": 2664,
      "足": 2665,
      "跆": 2666,
      "跋": 2667,
      "跟": 2668,
      "跨": 2669,
      "路": 2670,
      "跳": 2671,
      "踌": 2672,
      "蹟": 2673,
      "躇": 2674,
      "躊": 2675,
      "躍": 2676,
      "身": 2677,
      "車": 2678,
      "軍": 2679,
      "転": 2680,
      "較": 2681,
      "載": 2682,
      "輪": 2683,
      "车": 2684,
      "转": 2685,
      "轮": 2686,
      "载": 2687,
      "较": 2688,
      "辑": 2689,
      "辛": 2690,
      "辞": 2691,
      "辭": 2692,
      "辱": 2693,
      "農": 2694,
      "込": 2695,
      "达": 2696,
      "迅": 2697,
      "过": 2698,
      "迎": 2699,
      "运": 2700,
      "近": 2701,
      "返": 2702,
      "这": 2703,
      "进": 2704,
      "连": 2705,
      "述": 2706,
      "迷": 2707,
      "送": 2708,
      "适": 2709,
      "逃": 2710,
      "逆": 2711,
      "选": 2712,
      "透": 2713,
      "途": 2714,
      "通": 2715,
      "速": 2716,
      "造": 2717,
      "逢": 2718,
      "連": 2719,
      "逸": 2720,
      "遇": 2721,
      "遊": 2722,
      "運": 2723,
      "過": 2724,
      "道": 2725,
      "達": 2726,
      "遗": 2727,
      "遝": 2728,
      "遠": 2729,
      "遣": 2730,
      "適": 2731,
      "遪": 2732,
      "遭": 2733,
      "遲": 2734,
      "遷": 2735,
      "遽": 2736,
      "還": 2737,
      "邊": 2738,
      "邑": 2739,
      "那": 2740,
      "邱": 2741,
      "郎": 2742,
      "郑": 2743,
      "郝": 2744,
      "郡": 2745,
      "部": 2746,
      "郷": 2747,
      "都": 2748,
      "鄂": 2749,
      "鄉": 2750,
      "鄭": 2751,
      "酉": 2752,
      "配": 2753,
      "酎": 2754,
      "酒": 2755,
      "采": 2756,
      "釉": 2757,
      "里": 2758,
      "重": 2759,
      "野": 2760,
      "量": 2761,
      "金": 2762,
      "釣": 2763,
      "鈍": 2764,
      "鈴": 2765,
      "鉄": 2766,
      "鉋": 2767,
      "銀": 2768,
      "銭": 2769,
      "鋍": 2770,
      "鋑": 2771,
      "鋒": 2772,
      "鋓": 2773,
      "鋖": 2774,
      "鋘": 2775,
      "鋜": 2776,
      "鋝": 2777,
      "鋞": 2778,
      "鋟": 2779,
      "録": 2780,
      "鍋": 2781,
      "鎚": 2782,
      "鏡": 2783,
      "鐵": 2784,
      "针": 2785,
      "钓": 2786,
      "钟": 2787,
      "钢": 2788,
      "钦": 2789,
      "钧": 2790,
      "钱": 2791,
      "铁": 2792,
      "铃": 2793,
      "铭": 2794,
      "银": 2795,
      "销": 2796,
      "锈": 2797,
      "锋": 2798,
      "错": 2799,
      "锦": 2800,
      "键": 2801,
      "镜": 2802,
      "長": 2803,
      "长": 2804,
      "門": 2805,
      "開": 2806,
      "間": 2807,
      "関": 2808,
      "閣": 2809,
      "閥": 2810,
      "閩": 2811,
      "關": 2812,
      "门": 2813,
      "问": 2814,
      "间": 2815,
      "闵": 2816,
      "闻": 2817,
      "闽": 2818,
      "阜": 2819,
      "队": 2820,
      "阪": 2821,
      "防": 2822,
      "阳": 2823,
      "阶": 2824,
      "阿": 2825,
      "陀": 2826,
      "际": 2827,
      "陈": 2828,
      "降": 2829,
      "限": 2830,
      "院": 2831,
      "除": 2832,
      "陰": 2833,
      "陳": 2834,
      "陵": 2835,
      "陶": 2836,
      "陽": 2837,
      "隆": 2838,
      "隊": 2839,
      "階": 2840,
      "際": 2841,
      "障": 2842,
      "难": 2843,
      "雄": 2844,
      "雅": 2845,
      "集": 2846,
      "雙": 2847,
      "雛": 2848,
      "離": 2849,
      "難": 2850,
      "雨": 2851,
      "雪": 2852,
      "雲": 2853,
      "雷": 2854,
      "電": 2855,
      "需": 2856,
      "霊": 2857,
      "霖": 2858,
      "霜": 2859,
      "露": 2860,
      "青": 2861,
      "静": 2862,
      "非": 2863,
      "面": 2864,
      "革": 2865,
      "靳": 2866,
      "韓": 2867,
      "音": 2868,
      "韻": 2869,
      "頂": 2870,
      "項": 2871,
      "順": 2872,
      "須": 2873,
      "頑": 2874,
      "領": 2875,
      "頭": 2876,
      "題": 2877,
      "顗": 2878,
      "顯": 2879,
      "页": 2880,
      "顶": 2881,
      "顾": 2882,
      "预": 2883,
      "颐": 2884,
      "颖": 2885,
      "题": 2886,
      "颜": 2887,
      "额": 2888,
      "風": 2889,
      "风": 2890,
      "飛": 2891,
      "飞": 2892,
      "食": 2893,
      "飯": 2894,
      "飲": 2895,
      "飼": 2896,
      "館": 2897,
      "饮": 2898,
      "馆": 2899,
      "首": 2900,
      "香": 2901,
      "馬": 2902,
      "駄": 2903,
      "駅": 2904,
      "験": 2905,
      "騙": 2906,
      "騜": 2907,
      "驗": 2908,
      "马": 2909,
      "验": 2910,
      "骨": 2911,
      "髄": 2912,
      "體": 2913,
      "高": 2914,
      "鬼": 2915,
      "魔": 2916,
      "鮨": 2917,
      "鮮": 2918,
      "鯨": 2919,
      "鰀": 2920,
      "鰃": 2921,
      "鰄": 2922,
      "鰈": 2923,
      "鰊": 2924,
      "鰎": 2925,
      "鱲": 2926,
      "鱼": 2927,
      "鲁": 2928,
      "鲞": 2929,
      "鳩": 2930,
      "鳳": 2931,
      "鴻": 2932,
      "鵜": 2933,
      "鷹": 2934,
      "鸡": 2935,
      "鸭": 2936,
      "鸯": 2937,
      "鸳": 2938,
      "鹅": 2939,
      "鹈": 2940,
      "鹤": 2941,
      "鹿": 2942,
      "麗": 2943,
      "麩": 2944,
      "麺": 2945,
      "黃": 2946,
      "黄": 2947,
      "黎": 2948,
      "黒": 2949,
      "黚": 2950,
      "點": 2951,
      "黡": 2952,
      "黨": 2953,
      "黮": 2954,
      "黵": 2955,
      "黷": 2956,
      "鼻": 2957,
      "齋": 2958,
      "齡": 2959,
      "龍": 2960,
      "龙": 2961,
      "": 2962,
      "": 2963,
      "": 2964,
      "": 2965,
      "": 2966,
      "": 2967,
      "": 2968,
      "": 2969,
      "": 2970,
      "": 2971,
      "": 2972,
      "": 2973,
      "": 2974,
      "": 2975,
      "": 2976,
      "": 2977,
      "": 2978,
      "": 2979,
      "": 2980,
      "": 2981,
      "": 2982,
      "": 2983,
      "": 2984,
      "": 2985,
      "": 2986,
      "": 2987,
      "": 2988,
      "": 2989,
      "": 2990,
      "ﬁ": 2991,
      "ﬂ": 2992,
      "ﷲ": 2993,
      "︰": 2994,
      "ﺍ": 2995,
      "ﺏ": 2996,
      "ﺤ": 2997,
      "ﺩ": 2998,
      "ﻁ": 2999,
      "ﻙ": 3000,
      "ﻫ": 3001,
      "﻿": 3002,
      "！": 3003,
      "＄": 3004,
      "（": 3005,
      "）": 3006,
      "＊": 3007,
      "，": 3008,
      "－": 3009,
      "．": 3010,
      "１": 3011,
      "２": 3012,
      "７": 3013,
      "９": 3014,
      "：": 3015,
      "；": 3016,
      "？": 3017,
      "Ｉ": 3018,
      "Ｐ": 3019,
      "Ｓ": 3020,
      "Ｖ": 3021,
      "ｂ": 3022,
      "ｄ": 3023,
      "ｅ": 3024,
      "ｈ": 3025,
      "ｌ": 3026,
      "ｏ": 3027,
      "ｓ": 3028,
      "ｔ": 3029,
      "ｕ": 3030,
      "､": 3031,
      "･": 3032,
      "ｫ": 3033,
      "ｲ": 3034,
      "ｻ": 3035,
      "ｿ": 3036,
      "ﾜ": 3037,
      "ﾟ": 3038,
      "￠": 3039,
      "￡": 3040,
      "￥": 3041,
      "￼": 3042,
      "�": 3043,
      "𐌰": 3044,
      "𐌴": 3045,
      "𐌸": 3046,
      "𐌼": 3047,
      "𐌽": 3048,
      "𐍃": 3049,
      "𐍉": 3050,
      "𠐄": 3051,
      "𢥲": 3052,
      "𧵮": 3053,
      "𲠄": 3054,
      "𲠤": 3055,
      "򮬩": 3056,
      "򮮥": 3057,
      "򲤥": 3058,
      "򲵮": 3059,
      "򴩧": 3060,
      "n</w>": 3061,
      "O</w>": 3062,
      "e</w>": 3063,
      "s</w>": 3064,
      "d</w>": 3065,
      "T</w>": 3066,
      "y</w>": 3067,
      "f</w>": 3068,
      "ы</w>": 3069,
      "h</w>": 3070,
      "S</w>": 3071,
      "i</w>": 3072,
      "g</w>": 3073,
      "M</w>": 3074,
      "a</w>": 3075,
      "3</w>": 3076,
      "t</w>": 3077,
      "o</w>": 3078,
      "u</w>": 3079,
      "I</w>": 3080,
      "и</w>": 3081,
      "K</w>": 3082,
      "r</w>": 3083,
      "v</w>": 3084,
      "H</w>": 3085,
      "m</w>": 3086,
      "е</w>": 3087,
      "l</w>": 3088,
      "k</w>": 3089,
      "c</w>": 3090,
      "0</w>": 3091,
      "b</w>": 3092,
      "я</w>": 3093,
      "і</w>": 3094,
      "C</w>": 3095,
      "p</w>": 3096,
      "z</w>": 3097,
      "D</w>": 3098,
      "Г</w>": 3099,
      "5</w>": 3100,
      "A</w>": 3101,
      "ν</w>": 3102,
      "य</w>": 3103,
      "4</w>": 3104,
      "9</w>": 3105,
      "x</w>": 3106,
      "ᆫ</w>": 3107,
      "R</w>": 3108,
      "ю</w>": 3109,
      "w</w>": 3110,
      "X</w>": 3111,
      "α</w>": 3112,
      "U</w>": 3113,
      "B</w>": 3114,
      "F</w>": 3115,
      "L</w>": 3116,
      "E</w>": 3117,
      "P</w>": 3118,
      "N</w>": 3119,
      "2</w>": 3120,
      "q</w>": 3121,
      "6</w>": 3122,
      "а</w>": 3123,
      "ı</w>": 3124,
      "枫</w>": 3125,
      "у</w>": 3126,
      "W</w>": 3127,
      "j</w>": 3128,
      "-</w>": 3129,
      "1</w>": 3130,
      "ß</w>": 3131,
      "G</w>": 3132,
      "प</w>": 3133,
      "Y</w>": 3134,
      "た</w>": 3135,
      "о</w>": 3136,
      "J</w>": 3137,
      "8</w>": 3138,
      "V</w>": 3139,
      "र</w>": 3140,
      "7</w>": 3141,
      "ς</w>": 3142,
      "ख</w>": 3143,
      "Р</w>": 3144,
      "ई</w>": 3145,
      "ت</w>": 3146,
      "т</w>": 3147,
      "ə</w>": 3148,
      "м</w>": 3149,
      "म</w>": 3150,
      "ð</w>": 3151,
      "Z</w>": 3152,
      "ا</w>": 3153,
      "ب</w>": 3154,
      "н</w>": 3155,
      "є</w>": 3156,
      "þ</w>": 3157,
      "त</w>": 3158,
      "х</w>": 3159,
      "ь</w>": 3160,
      "ᅩ</w>": 3161,
      "ο</w>": 3162,
      "थ</w>": 3163,
      "क</w>": 3164,
      "ल</w>": 3165,
      "ह</w>": 3166,
      "ф</w>": 3167,
      "η</w>": 3168,
      "в</w>": 3169,
      "О</w>": 3170,
      "न</w>": 3171,
      "υ</w>": 3172,
      "ι</w>": 3173,
      "ब</w>": 3174,
      "ロ</w>": 3175,
      "ห</w>": 3176,
      "د</w>": 3177,
      "」</w>": 3178,
      "ø</w>": 3179,
      "М</w>": 3180,
      "酒</w>": 3181,
      ".</w>": 3182,
      "年</w>": 3183,
      "ג</w>": 3184,
      "訊</w>": 3185,
      "Q</w>": 3186,
      "ล</w>": 3187,
      "ᆼ</w>": 3188,
      "ธ</w>": 3189,
      "ɑ</w>": 3190,
      "ध</w>": 3191,
      "ज</w>": 3192,
      "ε</w>": 3193,
      "С</w>": 3194,
      "ш</w>": 3195,
      "州</w>": 3196,
      "</w>": 3197,
      "県</w>": 3198,
      "₠</w>": 3199,
      "ｅ</w>": 3200,
      "ز</w>": 3201,
      "ष</w>": 3202,
      "ท</w>": 3203,
      "基</w>": 3204,
      "æ</w>": 3205,
      "ם</w>": 3206,
      "Æ</w>": 3207,
      "с</w>": 3208,
      "゜</w>": 3209,
      "○</w>": 3210,
      "ね</w>": 3211,
      "ग</w>": 3212,
      "国</w>": 3213,
      "द</w>": 3214,
      "ะ</w>": 3215,
      "ч</w>": 3216,
      "±</w>": 3217,
      "บ</w>": 3218,
      "成</w>": 3219,
      "з</w>": 3220,
      "ɬ</w>": 3221,
      "¶</w>": 3222,
      "ن</w>": 3223,
      "ع</w>": 3224,
      "व</w>": 3225,
      "б</w>": 3226,
      "º</w>": 3227,
      "哈</w>": 3228,
      "م</w>": 3229,
      "者</w>": 3230,
      "联</w>": 3231,
      "ほ</w>": 3232,
      "利</w>": 3233,
      "文</w>": 3234,
      "ɛ</w>": 3235,
      "ड</w>": 3236,
      "音</w>": 3237,
      "ข</w>": 3238,
      "к</w>": 3239,
      "ł</w>": 3240,
      "ه</w>": 3241,
      "д</w>": 3242,
      "つ</w>": 3243,
      "〔</w>": 3244,
      "は</w>": 3245,
      "р</w>": 3246,
      "篇</w>": 3247,
      "该</w>": 3248,
      "σ</w>": 3249,
      "項</w>": 3250,
      "ר</w>": 3251,
      "侍</w>": 3252,
      "か</w>": 3253,
      "ક</w>": 3254,
      "族</w>": 3255,
      "毛</w>": 3256,
      "ל</w>": 3257,
      "宮</w>": 3258,
      "纸</w>": 3259,
      "ω</w>": 3260,
      "ヘ</w>": 3261,
      "ъ</w>": 3262,
      "भ</w>": 3263,
      "别</w>": 3264,
      "科</w>": 3265,
      "寺</w>": 3266,
      "ᆯ</w>": 3267,
      "元</w>": 3268,
      "╚</w>": 3269,
      "џ</w>": 3270,
      "价</w>": 3271,
      "स</w>": 3272,
      "ي</w>": 3273,
      "ж</w>": 3274,
      "ט</w>": 3275,
      "罪</w>": 3276,
      "К</w>": 3277,
      "ی</w>": 3278,
      "所</w>": 3279,
      "龙</w>": 3280,
      "ρ</w>": 3281,
      "茶</w>": 3282,
      "图</w>": 3283,
      "龍</w>": 3284,
      "÷</w>": 3285,
      "Ґ</w>": 3286,
      "۶</w>": 3287,
      "ク</w>": 3288,
      "請</w>": 3289,
      "µ</w>": 3290,
      "В</w>": 3291,
      "ण</w>": 3292,
      "г</w>": 3293,
      "ת</w>": 3294,
      "ป</w>": 3295,
      "館</w>": 3296,
      "ة</w>": 3297,
      "च</w>": 3298,
      "ѕ</w>": 3299,
      "л</w>": 3300,
      "他</w>": 3301,
      "س</w>": 3302,
      "</w>": 3303,
      "德</w>": 3304,
      "</w>": 3305,
      "∶</w>": 3306,
      "さ</w>": 3307,
      "Υ</w>": 3308,
      "山</w>": 3309,
      "Д</w>": 3310,
      "β</w>": 3311,
      "ر</w>": 3312,
      "到</w>": 3313,
      "術</w>": 3314,
      "ओ</w>": 3315,
      "ዋ</w>": 3316,
      "し</w>": 3317,
      "ラ</w>": 3318,
      "ठ</w>": 3319,
      "湖</w>": 3320,
      "Ц</w>": 3321,
      "ل</w>": 3322,
      "Ο</w>": 3323,
      "徽</w>": 3324,
      "经</w>": 3325,
      "蘇</w>": 3326,
      "家</w>": 3327,
      "線</w>": 3328,
      "ң</w>": 3329,
      "ს</w>": 3330,
      "わ</w>": 3331,
      "ª</w>": 3332,
      "ร</w>": 3333,
      "ー</w>": 3334,
      "蒸</w>": 3335,
      "น</w>": 3336,
      "印</w>": 3337,
      "ए</w>": 3338,
      "щ</w>": 3339,
      "札</w>": 3340,
      "ц</w>": 3341,
      "材</w>": 3342,
      "ɐ</w>": 3343,
      "生</w>": 3344,
      "ट</w>": 3345,
      "贊</w>": 3346,
      "爱</w>": 3347,
      "đ</w>": 3348,
      "粉</w>": 3349,
      "書</w>": 3350,
      "י</w>": 3351,
      "ა</w>": 3352,
      "市</w>": 3353,
      "股</w>": 3354,
      "</w>": 3355,
      "ス</w>": 3356,
      "③</w>": 3357,
      "ف</w>": 3358,
      "☺</w>": 3359,
      "ƒ</w>": 3360,
      "ი</w>": 3361,
      "²</w>": 3362,
      "鸡</w>": 3363,
      "』</w>": 3364,
      "श</w>": 3365,
      "寶</w>": 3366,
      "宏</w>": 3367,
      "พ</w>": 3368,
      "ढ</w>": 3369,
      "桂</w>": 3370,
      "ᅵ</w>": 3371,
      "益</w>": 3372,
      "料</w>": 3373,
      "घ</w>": 3374,
      "仝</w>": 3375,
      "ช</w>": 3376,
      "思</w>": 3377,
      "°</w>": 3378,
      "ſ</w>": 3379,
      "光</w>": 3380,
      "フ</w>": 3381,
      "背</w>": 3382,
      "ऊ</w>": 3383,
      "末</w>": 3384,
      "ト</w>": 3385,
      "息</w>": 3386,
      "李</w>": 3387,
      "陽</w>": 3388,
      "ม</w>": 3389,
      "Я</w>": 3390,
      "ง</w>": 3391,
      "ら</w>": 3392,
      "省</w>": 3393,
      "み</w>": 3394,
      "子</w>": 3395,
      "っ</w>": 3396,
      "?</w>": 3397,
      "喂</w>": 3398,
      "応</w>": 3399,
      "級</w>": 3400,
      "郎</w>": 3401,
      "ɔ</w>": 3402,
      "江</w>": 3403,
      "ት</w>": 3404,
      "Μ</w>": 3405,
      "ハ</w>": 3406,
      "П</w>": 3407,
      "別</w>": 3408,
      "县</w>": 3409,
      "埔</w>": 3410,
      "道</w>": 3411,
      "闻</w>": 3412,
      "车</w>": 3413,
      "Т</w>": 3414,
      "万</w>": 3415,
      "縣</w>": 3416,
      "`</w>": 3417,
      "记</w>": 3418,
      "胖</w>": 3419,
      "Δ</w>": 3420,
      "是</w>": 3421,
      "城</w>": 3422,
      "ย</w>": 3423,
      "ﬂ</w>": 3424,
      "業</w>": 3425,
      "司</w>": 3426,
      "位</w>": 3427,
      "羅</w>": 3428,
      "Њ</w>": 3429,
      "ה</w>": 3430,
      "­</w>": 3431,
      "语</w>": 3432,
      "ك</w>": 3433,
      "</w>": 3434,
      "湯</w>": 3435,
      "Ι</w>": 3436,
      "头</w>": 3437,
      "ᅡ</w>": 3438,
      "ˆ</w>": 3439,
      "郡</w>": 3440,
      "π</w>": 3441,
      "ศ</w>": 3442,
      "</w>": 3443,
      "\\</w>": 3444,
      "ד</w>": 3445,
      "刑</w>": 3446,
      "本</w>": 3447,
      "ق</w>": 3448,
      "助</w>": 3449,
      "頭</w>": 3450,
      "伝</w>": 3451,
      "ว</w>": 3452,
      "Ы</w>": 3453,
      "Ω</w>": 3454,
      "</w>": 3455,
      "型</w>": 3456,
      "说</w>": 3457,
      "内</w>": 3458,
      "ሕ</w>": 3459,
      "ן</w>": 3460,
      "字</w>": 3461,
      "燗</w>": 3462,
      "師</w>": 3463,
      "区</w>": 3464,
      "堰</w>": 3465,
      "娣</w>": 3466,
      "Е</w>": 3467,
      "表</w>": 3468,
      "片</w>": 3469,
      "п</w>": 3470,
      "−</w>": 3471,
      "也</w>": 3472,
      "ש</w>": 3473,
      "沪</w>": 3474,
      "ট</w>": 3475,
      "汤</w>": 3476,
      "体</w>": 3477,
      "ћ</w>": 3478,
      "র</w>": 3479,
      "れ</w>": 3480,
      "ผ</w>": 3481,
      "学</w>": 3482,
      "碧</w>": 3483,
      "に</w>": 3484,
      "色</w>": 3485,
      "◦</w>": 3486,
      "₵</w>": 3487,
      "冰</w>": 3488,
      ";</w>": 3489,
      "と</w>": 3490,
      "आ</w>": 3491,
      "А</w>": 3492,
      "ム</w>": 3493,
      "有</w>": 3494,
      "儀</w>": 3495,
      "草</w>": 3496,
      "嶺</w>": 3497,
      "楠</w>": 3498,
      "ん</w>": 3499,
      "载</w>": 3500,
      "氣</w>": 3501,
      "ᅮ</w>": 3502,
      "弓</w>": 3503,
      "吧</w>": 3504,
      "座</w>": 3505,
      "</w>": 3506,
      "ன</w>": 3507,
      "ネ</w>": 3508,
      "？</w>": 3509,
      "请</w>": 3510,
      "了</w>": 3511,
      "モ</w>": 3512,
      "女</w>": 3513,
      "ј</w>": 3514,
      "い</w>": 3515,
      "მ</w>": 3516,
      "ต</w>": 3517,
      "板</w>": 3518,
      "Ν</w>": 3519,
      "ด</w>": 3520,
      "薊</w>": 3521,
      "稼</w>": 3522,
      "ሻ</w>": 3523,
      "る</w>": 3524,
      "北</w>": 3525,
      "蔚</w>": 3526,
      "セ</w>": 3527,
      "ى</w>": 3528,
      "Ⅱ</w>": 3529,
      "</w>": 3530,
      "题</w>": 3531,
      "港</w>": 3532,
      "ま</w>": 3533,
      "φ</w>": 3534,
      "心</w>": 3535,
      "厂</w>": 3536,
      "ʃ</w>": 3537,
      "塊</w>": 3538,
      "殿</w>": 3539,
      "語</w>": 3540,
      "説</w>": 3541,
      "फ</w>": 3542,
      "ط</w>": 3543,
      "</w>": 3544,
      "¸</w>": 3545,
      "ക</w>": 3546,
      "‖</w>": 3547,
      "ส</w>": 3548,
      "页</w>": 3549,
      "桥</w>": 3550,
      "Љ</w>": 3551,
      "ケ</w>": 3552,
      "ບ</w>": 3553,
      "‘</w>": 3554,
      "۳</w>": 3555,
      "Ђ</w>": 3556,
      "验</w>": 3557,
      "舞</w>": 3558,
      "院</w>": 3559,
      "</w>": 3560,
      "ᑦ</w>": 3561,
      "ル</w>": 3562,
      "胡</w>": 3563,
      "点</w>": 3564,
      "帥</w>": 3565,
      "坡</w>": 3566,
      "琲</w>": 3567,
      "γ</w>": 3568,
      "Х</w>": 3569,
      "八</w>": 3570,
      "动</w>": 3571,
      "'</w>": 3572,
      "λ</w>": 3573,
      "%</w>": 3574,
      "𲠤</w>": 3575,
      "患</w>": 3576,
      "府</w>": 3577,
      "阪</w>": 3578,
      "อ</w>": 3579,
      "ኣ</w>": 3580,
      "*</w>": 3581,
      "贳</w>": 3582,
      "ᆷ</w>": 3583,
      "ע</w>": 3584,
      "主</w>": 3585,
      "需</w>": 3586,
      "丸</w>": 3587,
      "ณ</w>": 3588,
      "ː</w>": 3589,
      "宗</w>": 3590,
      "</w>": 3591,
      "∼</w>": 3592,
      "ค</w>": 3593,
      "</w>": 3594,
      "☎</w>": 3595,
      "ㅔ</w>": 3596,
      "╞</w>": 3597,
      "辛</w>": 3598,
      "社</w>": 3599,
      "り</w>": 3600,
      "園</w>": 3601,
      "廣</w>": 3602,
      "ŋ</w>": 3603,
      "癌</w>": 3604,
      "分</w>": 3605,
      "ᅳ</w>": 3606,
      "节</w>": 3607,
      "町</w>": 3608,
      "校</w>": 3609,
      "路</w>": 3610,
      "ワ</w>": 3611,
      "І</w>": 3612,
      "影</w>": 3613,
      "物</w>": 3614,
      "皮</w>": 3615,
      "೩</w>": 3616,
      "凄</w>": 3617,
      "欢</w>": 3618,
      "塾</w>": 3619,
      "運</w>": 3620,
      "志</w>": 3621,
      "ɨ</w>": 3622,
      "■</w>": 3623,
      "真</w>": 3624,
      "下</w>": 3625,
      "Ð</w>": 3626,
      "\"</w>": 3627,
      "▲</w>": 3628,
      "稱</w>": 3629,
      "黒</w>": 3630,
      "τ</w>": 3631,
      "中</w>": 3632,
      "人</w>": 3633,
      "ס</w>": 3634,
      "后</w>": 3635,
      "—</w>": 3636,
      "門</w>": 3637,
      "敏</w>": 3638,
      "</w>": 3639,
      "致</w>": 3640,
      "谷</w>": 3641,
      "て</w>": 3642,
      "も</w>": 3643,
      "大</w>": 3644,
      "壽</w>": 3645,
      "ʿ</w>": 3646,
      "の</w>": 3647,
      "ʒ</w>": 3648,
      "ፈ</w>": 3649,
      "@</w>": 3650,
      "風</w>": 3651,
      "央</w>": 3652,
      "Ł</w>": 3653,
      "Þ</w>": 3654,
      "鄉</w>": 3655,
      "夫</w>": 3656,
      "々</w>": 3657,
      "面</w>": 3658,
      "较</w>": 3659,
      "秋</w>": 3660,
      "済</w>": 3661,
      "気</w>": 3662,
      "雷</w>": 3663,
      "話</w>": 3664,
      "娥</w>": 3665,
      "എ</w>": 3666,
      "円</w>": 3667,
      "פ</w>": 3668,
      "行</w>": 3669,
      "根</w>": 3670,
      "</w>": 3671,
      "吗</w>": 3672,
      "士</w>": 3673,
      "</w>": 3674,
      "角</w>": 3675,
      "①</w>": 3676,
      "ɴ</w>": 3677,
      "上</w>": 3678,
      "吉</w>": 3679,
      "妻</w>": 3680,
      "答</w>": 3681,
      "ʲ</w>": 3682,
      "Ћ</w>": 3683,
      "¿</w>": 3684,
      "果</w>": 3685,
      "林</w>": 3686,
      "拳</w>": 3687,
      "喜</w>": 3688,
      "梁</w>": 3689,
      "应</w>": 3690,
      "陵</w>": 3691,
      "仙</w>": 3692,
      "ﬁ</w>": 3693,
      "手</w>": 3694,
      "◊</w>": 3695,
      "μ</w>": 3696,
      "ص</w>": 3697,
      "¤</w>": 3698,
      "法</w>": 3699,
      "报</w>": 3700,
      "﻿</w>": 3701,
      "名</w>": 3702,
      "℃</w>": 3703,
      "く</w>": 3704,
      "⅔</w>": 3705,
      "王</w>": 3706,
      "Σ</w>": 3707,
      "צ</w>": 3708,
      "舣</w>": 3709,
      "゛</w>": 3710,
      "何</w>": 3711,
      "对</w>": 3712,
      "♂</w>": 3713,
      "ত</w>": 3714,
      "½</w>": 3715,
      "۩</w>": 3716,
      "噌</w>": 3717,
      "۷</w>": 3718,
      "ʀ</w>": 3719,
      "シ</w>": 3720,
      "Э</w>": 3721,
      "ב</w>": 3722,
      "方</w>": 3723,
      "郑</w>": 3724,
      "Ѳ</w>": 3725,
      "途</w>": 3726,
      "忆</w>": 3727,
      "ᅢ</w>": 3728,
      "ン</w>": 3729,
      "豫</w>": 3730,
      "足</w>": 3731,
      "˚</w>": 3732,
      "）</w>": 3733,
      "島</w>": 3734,
      "原</w>": 3735,
      "土</w>": 3736,
      "熊</w>": 3737,
      "飛</w>": 3738,
      "处</w>": 3739,
      "月</w>": 3740,
      "设</w>": 3741,
      "取</w>": 3742,
      "浴</w>": 3743,
      "疗</w>": 3744,
      "╩</w>": 3745,
      "愛</w>": 3746,
      "</w>": 3747,
      "э</w>": 3748,
      "☻</w>": 3749,
      "庚</w>": 3750,
      "ナ</w>": 3751,
      "滨</w>": 3752,
      "ᅬ</w>": 3753,
      "¡</w>": 3754,
      "参</w>": 3755,
      "公</w>": 3756,
      "版</w>": 3757,
      "ゆ</w>": 3758,
      "Λ</w>": 3759,
      "Ⰶ</w>": 3760,
      "Κ</w>": 3761,
      "老</w>": 3762,
      "帝</w>": 3763,
      "ก</w>": 3764,
      "ნ</w>": 3765,
      "信</w>": 3766,
      "证</w>": 3767,
      "坂</w>": 3768,
      "ই</w>": 3769,
      "蓟</w>": 3770,
      "→</w>": 3771,
      "戸</w>": 3772,
      "都</w>": 3773,
      "オ</w>": 3774,
      "⇢</w>": 3775,
      "詩</w>": 3776,
      "腕</w>": 3777,
      "░</w>": 3778,
      "稲</w>": 3779,
      "卐</w>": 3780,
      "外</w>": 3781,
      "献</w>": 3782,
      "宿</w>": 3783,
      "Ш</w>": 3784,
      "‚</w>": 3785,
      "ำ</w>": 3786,
      "ཚ</w>": 3787,
      "訓</w>": 3788,
      "桶</w>": 3789,
      "步</w>": 3790,
      "森</w>": 3791,
      "之</w>": 3792,
      "Ø</w>": 3793,
      "阳</w>": 3794,
      "場</w>": 3795,
      "溪</w>": 3796,
      "煙</w>": 3797,
      "ɫ</w>": 3798,
      "傷</w>": 3799,
      "陀</w>": 3800,
      "食</w>": 3801,
      "হ</w>": 3802,
      "ゑ</w>": 3803,
      "量</w>": 3804,
      "ح</w>": 3805,
      "幹</w>": 3806,
      "亜</w>": 3807,
      "越</w>": 3808,
      "京</w>": 3809,
      "湘</w>": 3810,
      "ນ</w>": 3811,
      "ק</w>": 3812,
      "能</w>": 3813,
      "➟</w>": 3814,
      "ض</w>": 3815,
      "仪</w>": 3816,
      "Ε</w>": 3817,
      "掻</w>": 3818,
      "Α</w>": 3819,
      "评</w>": 3820,
      "庁</w>": 3821,
      "ซ</w>": 3822,
      "κ</w>": 3823,
      "岛</w>": 3824,
      "ツ</w>": 3825,
      "日</w>": 3826,
      "ɪ</w>": 3827,
      "固</w>": 3828,
      "<</w>": 3829,
      "正</w>": 3830,
      "汴</w>": 3831,
      "娃</w>": 3832,
      "会</w>": 3833,
      "曌</w>": 3834,
      "イ</w>": 3835,
      "國</w>": 3836,
      "ו</w>": 3837,
      "Ж</w>": 3838,
      "墩</w>": 3839,
      "У</w>": 3840,
      "↑</w>": 3841,
      "…</w>": 3842,
      "ک</w>": 3843,
      "ዕ</w>": 3844,
      "室</w>": 3845,
      "Ｐ</w>": 3846,
      "उ</w>": 3847,
      "ญ</w>": 3848,
      "√</w>": 3849,
      "藤</w>": 3850,
      "‑</w>": 3851,
      "出</w>": 3852,
      "农</w>": 3853,
      "麗</w>": 3854,
      "納</w>": 3855,
      "呂</w>": 3856,
      "馬</w>": 3857,
      "©</w>": 3858,
      "螨</w>": 3859,
      "泉</w>": 3860,
      "ج</w>": 3861,
      "‛</w>": 3862,
      "യ</w>": 3863,
      "丨</w>": 3864,
      "造</w>": 3865,
      "ন</w>": 3866,
      "農</w>": 3867,
      "门</w>": 3868,
      "寨</w>": 3869,
      "丼</w>": 3870,
      "ء</w>": 3871,
      "□</w>": 3872,
      "◙</w>": 3873,
      "ɾ</w>": 3874,
      "വ</w>": 3875,
      "啦</w>": 3876,
      "悩</w>": 3877,
      "Л</w>": 3878,
      "</w>": 3879,
      "否</w>": 3880,
      "怪</w>": 3881,
      "海</w>": 3882,
      "】</w>": 3883,
      "比</w>": 3884,
      "箱</w>": 3885,
      "明</w>": 3886,
      "鍋</w>": 3887,
      "ז</w>": 3888,
      "弦</w>": 3889,
      "俊</w>": 3890,
      "邑</w>": 3891,
      "身</w>": 3892,
      "顶</w>": 3893,
      "ﺤ</w>": 3894,
      "莞</w>": 3895,
      "塔</w>": 3896,
      "☑</w>": 3897,
      "慎</w>": 3898,
      "ᅥ</w>": 3899,
      "И</w>": 3900,
      "↓</w>": 3901,
      "搞</w>": 3902,
      "过</w>": 3903,
      "झ</w>": 3904,
      "来</w>": 3905,
      "＄</w>": 3906,
      "辞</w>": 3907,
      "◆</w>": 3908,
      "禪</w>": 3909,
      "腔</w>": 3910,
      "Ф</w>": 3911,
      "翼</w>": 3912,
      "</w>": 3913,
      "滬</w>": 3914,
      "东</w>": 3915,
      "鼻</w>": 3916,
      "義</w>": 3917,
      "墟</w>": 3918,
      "ʊ</w>": 3919,
      "ょ</w>": 3920,
      "體</w>": 3921,
      "忻</w>": 3922,
      "西</w>": 3923,
      "朝</w>": 3924,
      "约</w>": 3925,
      "简</w>": 3926,
      "受</w>": 3927,
      "集</w>": 3928,
      "景</w>": 3929,
      "ம</w>": 3930,
      "و</w>": 3931,
      "•</w>": 3932,
      "ウ</w>": 3933,
      "‌</w>": 3934,
      "植</w>": 3935,
      "Đ</w>": 3936,
      "庫</w>": 3937,
      "￥</w>": 3938,
      "ວ</w>": 3939,
      "ィ</w>": 3940,
      "卦</w>": 3941,
      "Φ</w>": 3942,
      "證</w>": 3943,
      "街</w>": 3944,
      "遲</w>": 3945,
      "Π</w>": 3946,
      "א</w>": 3947,
      "藏</w>": 3948,
      "空</w>": 3949,
      "歌</w>": 3950,
      "店</w>": 3951,
      "什</w>": 3952,
      "理</w>": 3953,
      "寸</w>": 3954,
      "參</w>": 3955,
      "羲</w>": 3956,
      "站</w>": 3957,
      "ᅦ</w>": 3958,
      "¹</w>": 3959,
      "场</w>": 3960,
      "閥</w>": 3961,
      "ʤ</w>": 3962,
      "す</w>": 3963,
      "য</w>": 3964,
      "洛</w>": 3965,
      "♫</w>": 3966,
      "妤</w>": 3967,
      "伐</w>": 3968,
      "珠</w>": 3969,
      "ന</w>": 3970,
      "‶</w>": 3971,
      "线</w>": 3972,
      "而</w>": 3973,
      "瓶</w>": 3974,
      "ღ</w>": 3975,
      "´</w>": 3976,
      "保</w>": 3977,
      "</w>": 3978,
      "򴩧</w>": 3979,
      "莨</w>": 3980,
      "タ</w>": 3981,
      "贞</w>": 3982,
      "渝</w>": 3983,
      "區</w>": 3984,
      "メ</w>": 3985,
      "ぃ</w>": 3986,
      "腺</w>": 3987,
      "风</w>": 3988,
      "،</w>": 3989,
      "申</w>": 3990,
      "禅</w>": 3991,
      "圖</w>": 3992,
      "₣</w>": 3993,
      "泰</w>": 3994,
      "配</w>": 3995,
      "盧</w>": 3996,
      "呼</w>": 3997,
      "∞</w>": 3998,
      "胞</w>": 3999,
      "</w>": 4000,
      "顗</w>": 4001,
      "辭</w>": 4002,
      "ད</w>": 4003,
      "ੜ</w>": 4004,
      "謑</w>": 4005,
      "田</w>": 4006,
      "口</w>": 4007,
      "剧</w>": 4008,
      "ර</w>": 4009,
      "客</w>": 4010,
      "立</w>": 4011,
      "璃</w>": 4012,
      "南</w>": 4013,
      "计</w>": 4014,
      "Τ</w>": 4015,
      "寻</w>": 4016,
      "</w>": 4017,
      "寳</w>": 4018,
      "˝</w>": 4019,
      "白</w>": 4020,
      "春</w>": 4021,
      "經</w>": 4022,
      "۹</w>": 4023,
      "駅</w>": 4024,
      "肥</w>": 4025,
      "ㄧ</w>": 4026,
      "仲</w>": 4027,
      "♦</w>": 4028,
      "˘</w>": 4029,
      "连</w>": 4030,
      "ߖ</w>": 4031,
      "Ю</w>": 4032,
      "ప</w>": 4033,
      "!</w>": 4034,
      "ʐ</w>": 4035,
      "་</w>": 4036,
      "า</w>": 4037,
      "ਹ</w>": 4038,
      "弁</w>": 4039,
      "三</w>": 4040,
      "址</w>": 4041,
      "活</w>": 4042,
      "間</w>": 4043,
      "我</w>": 4044,
      "讯</w>": 4045,
      "ｫ</w>": 4046,
      "๑</w>": 4047,
      "囧</w>": 4048,
      "ட</w>": 4049,
      "。</w>": 4050,
      "芝</w>": 4051,
      "।</w>": 4052,
      "ڭ</w>": 4053,
      "澤</w>": 4054,
      "┐</w>": 4055,
      "Θ</w>": 4056,
      "求</w>": 4057,
      "┬</w>": 4058,
      "ሽ</w>": 4059,
      "⇔</w>": 4060,
      "在</w>": 4061,
      "逸</w>": 4062,
      "￼</w>": 4063,
      "腹</w>": 4064,
      "竜</w>": 4065,
      "њ</w>": 4066,
      "鈴</w>": 4067,
      "▒</w>": 4068,
      "ር</w>": 4069,
      "◇</w>": 4070,
      "め</w>": 4071,
      "斗</w>": 4072,
      "ח</w>": 4073,
      ")</w>": 4074,
      "⋅</w>": 4075,
      "和</w>": 4076,
      "†</w>": 4077,
      "ǝ</w>": 4078,
      "见</w>": 4079,
      "こ</w>": 4080,
      "数</w>": 4081,
      "З</w>": 4082,
      "ә</w>": 4083,
      "教</w>": 4084,
      "坤</w>": 4085,
      "छ</w>": 4086,
      "铁</w>": 4087,
      "死</w>": 4088,
      "¨</w>": 4089,
      "會</w>": 4090,
      "玄</w>": 4091,
      "ץ</w>": 4092,
      "</w>": 4093,
      "Џ</w>": 4094,
      "韻</w>": 4095,
      "黨</w>": 4096,
      "˛</w>": 4097,
      "፣</w>": 4098,
      "Н</w>": 4099,
      "你</w>": 4100,
      "灣</w>": 4101,
      "ถ</w>": 4102,
      "リ</w>": 4103,
      "Ƙ</w>": 4104,
      "娜</w>": 4105,
      "΄</w>": 4106,
      "Η</w>": 4107,
      "稿</w>": 4108,
      "®</w>": 4109,
      "ش</w>": 4110,
      "ħ</w>": 4111,
      "憎</w>": 4112,
      "呀</w>": 4113,
      "遽</w>": 4114,
      "酎</w>": 4115,
      "や</w>": 4116,
      "</w>": 4117,
      "န</w>": 4118,
      "Ь</w>": 4119,
      "ካ</w>": 4120,
      "回</w>": 4121,
      "【</w>": 4122,
      "楽</w>": 4123,
      "へ</w>": 4124,
      "Є</w>": 4125,
      "媛</w>": 4126,
      "ຂ</w>": 4127,
      "ہ</w>": 4128,
      "新</w>": 4129,
      "事</w>": 4130,
      "付</w>": 4131,
      "婁</w>": 4132,
      "節</w>": 4133,
      "ㄈ</w>": 4134,
      "き</w>": 4135,
      "む</w>": 4136,
      "˙</w>": 4137,
      "朗</w>": 4138,
      "號</w>": 4139,
      "儉</w>": 4140,
      "</w>": 4141,
      "葉</w>": 4142,
      "温</w>": 4143,
      "知</w>": 4144,
      "⇗</w>": 4145,
      "�</w>": 4146,
      "۲</w>": 4147,
      "号</w>": 4148,
      "广</w>": 4149,
      "な</w>": 4150,
      "¢</w>": 4151,
      "≫</w>": 4152,
      "ም</w>": 4153,
      "尾</w>": 4154,
      "卍</w>": 4155,
      "ᆨ</w>": 4156,
      "貌</w>": 4157,
      "え</w>": 4158,
      "ろ</w>": 4159,
      "蜀</w>": 4160,
      "村</w>": 4161,
      "</w>": 4162,
      "￠</w>": 4163,
      "த</w>": 4164,
      "天</w>": 4165,
      "峽</w>": 4166,
      "ദ</w>": 4167,
      "№</w>": 4168,
      "۞</w>": 4169,
      "記</w>": 4170,
      "満</w>": 4171,
      "因</w>": 4172,
      "∑</w>": 4173,
      "ユ</w>": 4174,
      "ይ</w>": 4175,
      "电</w>": 4176,
      "あ</w>": 4177,
      "Б</w>": 4178,
      "待</w>": 4179,
      "竹</w>": 4180,
      "父</w>": 4181,
      "⇒</w>": 4182,
      "ர</w>": 4183,
      "ᅣ</w>": 4184,
      "ฝ</w>": 4185,
      "购</w>": 4186,
      "ㄤ</w>": 4187,
      "堆</w>": 4188,
      "ན</w>": 4189,
      "·</w>": 4190,
      "¬</w>": 4191,
      "氏</w>": 4192,
      "框</w>": 4193,
      "ర</w>": 4194,
      "二</w>": 4195,
      "‭</w>": 4196,
      "皇</w>": 4197,
      "遇</w>": 4198,
      "旭</w>": 4199,
      "〕</w>": 4200,
      "吸</w>": 4201,
      "止</w>": 4202,
      "හ</w>": 4203,
      "馆</w>": 4204,
      "屋</w>": 4205,
      "$</w>": 4206,
      "‒</w>": 4207,
      "↧</w>": 4208,
      "█</w>": 4209,
      "禹</w>": 4210,
      "</w>": 4211,
      "挑</w>": 4212,
      "จ</w>": 4213,
      "ү</w>": 4214,
      "杏</w>": 4215,
      "资</w>": 4216,
      "男</w>": 4217,
      "ア</w>": 4218,
      "➔</w>": 4219,
      "素</w>": 4220,
      "◈</w>": 4221,
      "œ</w>": 4222,
      "☯</w>": 4223,
      "۸</w>": 4224,
      "②</w>": 4225,
      "唐</w>": 4226,
      "雄</w>": 4227,
      "ბ</w>": 4228,
      "ґ</w>": 4229,
      "痴</w>": 4230,
      "מ</w>": 4231,
      "</w>": 4232,
      "ҳ</w>": 4233,
      "堂</w>": 4234,
      "章</w>": 4235,
      "態</w>": 4236,
      "ヤ</w>": 4237,
      "員</w>": 4238,
      "ཏ</w>": 4239,
      "祖</w>": 4240,
      "返</w>": 4241,
      "&</w>": 4242,
      "乙</w>": 4243,
      "试</w>": 4244,
      "慈</w>": 4245,
      "闽</w>": 4246,
      "─</w>": 4247,
      "≈</w>": 4248,
      "ষ</w>": 4249,
      "ო</w>": 4250,
      "ฮ</w>": 4251,
      "称</w>": 4252,
      "臓</w>": 4253,
      "♪</w>": 4254,
      "干</w>": 4255,
      "同</w>": 4256,
      "›</w>": 4257,
      "亨</w>": 4258,
      "ๆ</w>": 4259,
      "§</w>": 4260,
      "花</w>": 4261,
      "木</w>": 4262,
      "‽</w>": 4263,
      "東</w>": 4264,
      "ৰ</w>": 4265,
      "</w>": 4266,
      "劉</w>": 4267,
      "意</w>": 4268,
      "Ч</w>": 4269,
      "伯</w>": 4270,
      "易</w>": 4271,
      "འ</w>": 4272,
      "∃</w>": 4273,
      "济</w>": 4274,
      "∈</w>": 4275,
      "☼</w>": 4276,
      "一</w>": 4277,
      "岭</w>": 4278,
      "۴</w>": 4279,
      "切</w>": 4280,
      "件</w>": 4281,
      "軍</w>": 4282,
      "३</w>": 4283,
      "ʔ</w>": 4284,
      "۱</w>": 4285,
      "“</w>": 4286,
      "佰</w>": 4287,
      "አ</w>": 4288,
      "➚</w>": 4289,
      "巧</w>": 4290,
      "せ</w>": 4291,
      "Ȥ</w>": 4292,
      "匠</w>": 4293,
      "け</w>": 4294,
      "ᅧ</w>": 4295,
      "像</w>": 4296,
      "孴</w>": 4297,
      "Χ</w>": 4298,
      "网</w>": 4299,
      "™</w>": 4300,
      "刀</w>": 4301,
      "ﻫ</w>": 4302,
      "耶</w>": 4303,
      "以</w>": 4304,
      "序</w>": 4305,
      "讼</w>": 4306,
      "ञ</w>": 4307,
      "೧</w>": 4308,
      "､</w>": 4309,
      "容</w>": 4310,
      "议</w>": 4311,
      "茜</w>": 4312,
      "鯨</w>": 4313,
      "ζ</w>": 4314,
      "货</w>": 4315,
      "《</w>": 4316,
      "伟</w>": 4317,
      "式</w>": 4318,
      "群</w>": 4319,
      "气</w>": 4320,
      "浦</w>": 4321,
      "►</w>": 4322,
      "見</w>": 4323,
      "論</w>": 4324,
      ",</w>": 4325,
      "</w>": 4326,
      "化</w>": 4327,
      "฿</w>": 4328,
      "▸</w>": 4329,
      "汁</w>": 4330,
      "朔</w>": 4331,
      "屄</w>": 4332,
      "ㅣ</w>": 4333,
      "从</w>": 4334,
      "用</w>": 4335,
      "Β</w>": 4336,
      "‪</w>": 4337,
      "『</w>": 4338,
      "菜</w>": 4339,
      "ራ</w>": 4340,
      "瞻</w>": 4341,
      "周</w>": 4342,
      "訳</w>": 4343,
      "శ</w>": 4344,
      "》</w>": 4345,
      "核</w>": 4346,
      "销</w>": 4347,
      "松</w>": 4348,
      "談</w>": 4349,
      "χ</w>": 4350,
      "★</w>": 4351,
      "۵</w>": 4352,
      "洞</w>": 4353,
      "˜</w>": 4354,
      "⅛</w>": 4355,
      "┴</w>": 4356,
      "飼</w>": 4357,
      "‰</w>": 4358,
      "现</w>": 4359,
      "灯</w>": 4360,
      "器</w>": 4361,
      "ን</w>": 4362,
      "园</w>": 4363,
      "四</w>": 4364,
      "邱</w>": 4365,
      "ლ</w>": 4366,
      "ব</w>": 4367,
      "₁</w>": 4368,
      "ゅ</w>": 4369,
      "←</w>": 4370,
      "水</w>": 4371,
      "際</w>": 4372,
      "齋</w>": 4373,
      "డ</w>": 4374,
      "平</w>": 4375,
      "血</w>": 4376,
      "税</w>": 4377,
      "⌃</w>": 4378,
      "ል</w>": 4379,
      "△</w>": 4380,
      "跨</w>": 4381,
      "⅓</w>": 4382,
      "򲤥</w>": 4383,
      "£</w>": 4384,
      "</w>": 4385,
      "ɒ</w>": 4386,
      "修</w>": 4387,
      "ひ</w>": 4388,
      "航</w>": 4389,
      "巴</w>": 4390,
      "负</w>": 4391,
      "涂</w>": 4392,
      "テ</w>": 4393,
      "璐</w>": 4394,
      "Ɲ</w>": 4395,
      "米</w>": 4396,
      "ય</w>": 4397,
      "チ</w>": 4398,
      "続</w>": 4399,
      "カ</w>": 4400,
      "₴</w>": 4401,
      "紋</w>": 4402,
      "サ</w>": 4403,
      "ರ</w>": 4404,
      "↔</w>": 4405,
      "ʦ</w>": 4406,
      "落</w>": 4407,
      "伴</w>": 4408,
      "：</w>": 4409,
      "報</w>": 4410,
      "悟</w>": 4411,
      "網</w>": 4412,
      "雲</w>": 4413,
      "跆</w>": 4414,
      "ھ</w>": 4415,
      "Ρ</w>": 4416,
      "¥</w>": 4417,
      "降</w>": 4418,
      "豆</w>": 4419,
      "锋</w>": 4420,
      "ホ</w>": 4421,
      "=</w>": 4422,
      "勢</w>": 4423,
      "！</w>": 4424,
      "ち</w>": 4425,
      "ㅖ</w>": 4426,
      "奘</w>": 4427,
      "崔</w>": 4428,
      "況</w>": 4429,
      "剑</w>": 4430,
      "ψ</w>": 4431,
      "太</w>": 4432,
      "򮮥</w>": 4433,
      "詹</w>": 4434,
      "𲠄</w>": 4435,
      "∴</w>": 4436,
      "ॐ</w>": 4437,
      "発</w>": 4438,
      "⁄</w>": 4439,
      "布</w>": 4440,
      "种</w>": 4441,
      "做</w>": 4442,
      "＊</w>": 4443,
      "・</w>": 4444,
      "蕭</w>": 4445,
      "鲁</w>": 4446,
      "ঙ</w>": 4447,
      "狗</w>": 4448,
      "</w>": 4449,
      "漢</w>": 4450,
      "圏</w>": 4451,
      "油</w>": 4452,
      "ノ</w>": 4453,
      "込</w>": 4454,
      "那</w>": 4455,
      "，</w>": 4456,
      "焼</w>": 4457,
      "統</w>": 4458,
      "介</w>": 4459,
      "加</w>": 4460,
      "霊</w>": 4461,
      "―</w>": 4462,
      "鬼</w>": 4463,
      ":</w>": 4464,
      "罗</w>": 4465,
      "膚</w>": 4466,
      "閩</w>": 4467,
      "律</w>": 4468,
      "格</w>": 4469,
      "宝</w>": 4470,
      "段</w>": 4471,
      "署</w>": 4472,
      "遝</w>": 4473,
      "​</w>": 4474,
      "~</w>": 4475,
      "傳</w>": 4476,
      "ɯ</w>": 4477,
      "ম</w>": 4478,
      "交</w>": 4479,
      "引</w>": 4480,
      "³</w>": 4481,
      "寿</w>": 4482,
      "粤</w>": 4483,
      "重</w>": 4484,
      "Ѕ</w>": 4485,
      "当</w>": 4486,
      "_</w>": 4487,
      "部</w>": 4488,
      "坊</w>": 4489,
      "┌</w>": 4490,
      "安</w>": 4491,
      "狐</w>": 4492,
      "病</w>": 4493,
      "│</w>": 4494,
      "</w>": 4495,
      "席</w>": 4496,
      "エ</w>": 4497,
      "宜</w>": 4498,
      "隊</w>": 4499,
      "倍</w>": 4500,
      "ሴ</w>": 4501,
      "</w>": 4502,
      "ぁ</w>": 4503,
      "为</w>": 4504,
      "ॡ</w>": 4505,
      "鮮</w>": 4506,
      "洋</w>": 4507,
      "商</w>": 4508,
      "黵</w>": 4509,
      "順</w>": 4510,
      "そ</w>": 4511,
      "Ζ</w>": 4512,
      "┘</w>": 4513,
      "ဟ</w>": 4514,
      "働</w>": 4515,
      "ಯ</w>": 4516,
      "ረ</w>": 4517,
      "乘</w>": 4518,
      "鄂</w>": 4519,
      "这</w>": 4520,
      "萬</w>": 4521,
      "⁴</w>": 4522,
      "圓</w>": 4523,
      "作</w>": 4524,
      "姦</w>": 4525,
      "ッ</w>": 4526,
      "≪</w>": 4527,
      "機</w>": 4528,
      "繁</w>": 4529,
      "ɡ</w>": 4530,
      "剥</w>": 4531,
      "制</w>": 4532,
      "佑</w>": 4533,
      "學</w>": 4534,
      "黄</w>": 4535,
      "于</w>": 4536,
      "₂</w>": 4537,
      "鏡</w>": 4538,
      "ⁿ</w>": 4539,
      "康</w>": 4540,
      "楼</w>": 4541,
      "গ</w>": 4542,
      "</w>": 4543,
      "苑</w>": 4544,
      "‹</w>": 4545,
      "倉</w>": 4546,
      "︰</w>": 4547,
      "</w>": 4548,
      "€</w>": 4549,
      "እ</w>": 4550,
      "遷</w>": 4551,
      "ฯ</w>": 4552,
      "栽</w>": 4553,
      "བ</w>": 4554,
      "”</w>": 4555,
      "错</w>": 4556,
      "ゐ</w>": 4557,
      "򲵮</w>": 4558,
      "∀</w>": 4559,
      "′</w>": 4560,
      "ކ</w>": 4561,
      "</w>": 4562,
      "吃</w>": 4563,
      "￡</w>": 4564,
      "剣</w>": 4565,
      "ヒ</w>": 4566,
      "洒</w>": 4567,
      "‬</w>": 4568,
      "谢</w>": 4569,
      "✿</w>": 4570,
      "言</w>": 4571,
      "ヌ</w>": 4572,
      "梨</w>": 4573,
      "長</w>": 4574,
      "མ</w>": 4575,
      "通</w>": 4576,
      "统</w>": 4577,
      "石</w>": 4578,
      "玲</w>": 4579,
      "¾</w>": 4580,
      "功</w>": 4581,
      "ソ</w>": 4582,
      "●</w>": 4583,
      "珍</w>": 4584,
      "很</w>": 4585,
      "列</w>": 4586,
      "幣</w>": 4587,
      "団</w>": 4588,
      "ㅓ</w>": 4589,
      "野</w>": 4590,
      "Щ</w>": 4591,
      "☏</w>": 4592,
      "折</w>": 4593,
      "枡</w>": 4594,
      "右</w>": 4595,
      "间</w>": 4596,
      "蓮</w>": 4597,
      "ᑲ</w>": 4598,
      "仁</w>": 4599,
      "麺</w>": 4600,
      "ক</w>": 4601,
      "’</w>": 4602,
      "</w>": 4603,
      "佗</w>": 4604,
      "¯</w>": 4605,
      "う</w>": 4606,
      "ٹ</w>": 4607,
      "要</w>": 4608,
      "宁</w>": 4609,
      "濱</w>": 4610,
      "合</w>": 4611,
      "≥</w>": 4612,
      "რ</w>": 4613,
      "Γ</w>": 4614,
      "精</w>": 4615,
      "跟</w>": 4616,
      "目</w>": 4617,
      "ﷲ</w>": 4618,
      "പ</w>": 4619,
      "劇</w>": 4620,
      "</w>": 4621,
      "</w>": 4622,
      "疫</w>": 4623,
      "－</w>": 4624,
      "发</w>": 4625,
      "¦</w>": 4626,
      "Ⅲ</w>": 4627,
      "去</w>": 4628,
      "琢</w>": 4629,
      "読</w>": 4630,
      "烏</w>": 4631,
      "星</w>": 4632,
      "よ</w>": 4633,
      "♠</w>": 4634,
      "哮</w>": 4635,
      "胜</w>": 4636,
      "コ</w>": 4637,
      "″</w>": 4638,
      "ங</w>": 4639,
      "‼</w>": 4640,
      "</w>": 4641,
      "ｄ</w>": 4642,
      "ল</w>": 4643,
      "索</w>": 4644,
      "嘛</w>": 4645,
      "賢</w>": 4646,
      "辑</w>": 4647,
      "井</w>": 4648,
      "▼</w>": 4649,
      "圳</w>": 4650,
      "標</w>": 4651,
      "Œ</w>": 4652,
      "♣</w>": 4653,
      "お</w>": 4654,
      "鮨</w>": 4655,
      "第</w>": 4656,
      "</w>": 4657,
      "^</w>": 4658,
      "ɹ</w>": 4659,
      "</w>": 4660,
      "ዲ</w>": 4661,
      "疆</w>": 4662,
      "➲</w>": 4663,
      "今</w>": 4664,
      "⅞</w>": 4665,
      "ጽ</w>": 4666,
      "#</w>": 4667,
      "ឋ</w>": 4668,
      "定</w>": 4669,
      "艮</w>": 4670,
      "જ</w>": 4671,
      "‟</w>": 4672,
      "ʼ</w>": 4673,
      "众</w>": 4674,
      "话</w>": 4675,
      "</w>": 4676,
      "θ</w>": 4677,
      "住</w>": 4678,
      "房</w>": 4679,
      "颐</w>": 4680,
      "川</w>": 4681,
      "‍</w>": 4682,
      "柱</w>": 4683,
      "箍</w>": 4684,
      "紂</w>": 4685,
      "〜</w>": 4686,
      "ᒃ</w>": 4687,
      "ぇ</w>": 4688,
      "ㅕ</w>": 4689,
      "钦</w>": 4690,
      "ʁ</w>": 4691,
      "इ</w>": 4692,
      "></w>": 4693,
      "‡</w>": 4694,
      "疑</w>": 4695,
      "१</w>": 4696,
      "遊</w>": 4697,
      "ふ</w>": 4698,
      "Ъ</w>": 4699,
      "矢</w>": 4700,
      "</w>": 4701,
      "∙</w>": 4702,
      "電</w>": 4703,
      "坛</w>": 4704,
      "ヨ</w>": 4705,
      "ﺍ</w>": 4706,
      "ధ</w>": 4707,
      "マ</w>": 4708,
      "慶</w>": 4709,
      "ミ</w>": 4710,
      "球</w>": 4711,
      "的</w>": 4712,
      "（</w>": 4713,
      "(</w>": 4714,
      "ရ</w>": 4715,
      "憾</w>": 4716,
      "恩</w>": 4717,
      "</w>": 4718,
      "澄</w>": 4719,
      "ぬ</w>": 4720,
      "肉</w>": 4721,
      "</w>": 4722,
      "ث</w>": 4723,
      "雅</w>": 4724,
      "ე</w>": 4725,
      "„</w>": 4726,
      "₪</w>": 4727,
      "∫</w>": 4728,
      "好</w>": 4729,
      "頑</w>": 4730,
      "ત</w>": 4731,
      "霖</w>": 4732,
      "碁</w>": 4733,
      "‏</w>": 4734,
      "ᆸ</w>": 4735,
      "乾</w>": 4736,
      "磨</w>": 4737,
      "画</w>": 4738,
      "鱼</w>": 4739,
      "选</w>": 4740,
      "但</w>": 4741,
      "镜</w>": 4742,
      "问</w>": 4743,
      "迎</w>": 4744,
      "持</w>": 4745,
      "乗</w>": 4746,
      "⌘</w>": 4747,
      "小</w>": 4748,
      "队</w>": 4749,
      "‐</w>": 4750,
      "題</w>": 4751,
      "५</w>": 4752,
      "キ</w>": 4753,
      "实</w>": 4754,
      "≤</w>": 4755,
      "</w>": 4756,
      "樹</w>": 4757,
      "丈</w>": 4758,
      "畿</w>": 4759,
      "※</w>": 4760,
      "ህ</w>": 4761,
      "Ȣ</w>": 4762,
      "夷</w>": 4763,
      "昇</w>": 4764,
      "粵</w>": 4765,
      "೫</w>": 4766,
      "დ</w>": 4767,
      "ﻁ</w>": 4768,
      "沢</w>": 4769,
      "湾</w>": 4770,
      "模</w>": 4771,
      "传</w>": 4772,
      "武</w>": 4773,
      "念</w>": 4774,
      "設</w>": 4775,
      "ニ</w>": 4776,
      "「</w>": 4777,
      "急</w>": 4778,
      "庆</w>": 4779,
      "ⲉ</w>": 4780,
      "𠐄</w>": 4781,
      "代</w>": 4782,
      "レ</w>": 4783,
      "◎</w>": 4784,
      "乌</w>": 4785,
      "δ</w>": 4786,
      "ដ</w>": 4787,
      "資</w>": 4788,
      "広</w>": 4789,
      "㎡</w>": 4790,
      "菱</w>": 4791,
      "池</w>": 4792,
      "露</w>": 4793,
      "祸</w>": 4794,
      "、</w>": 4795,
      "𐍃</w>": 4796,
      "钓</w>": 4797,
      "徳</w>": 4798,
      "齡</w>": 4799,
      "–</w>": 4800,
      "└</w>": 4801,
      "克</w>": 4802,
      "</w>": 4803,
      "×</w>": 4804,
      "♥</w>": 4805,
      "車</w>": 4806,
      "≡</w>": 4807,
      "．</w>": 4808,
      "ｓ</w>": 4809,
      "卡</w>": 4810,
      "近</w>": 4811,
      "绞</w>": 4812,
      "清</w>": 4813,
      "験</w>": 4814,
      "ಶ</w>": 4815,
      "括</w>": 4816,
      "陈</w>": 4817,
      "裂</w>": 4818,
      "張</w>": 4819,
      "摩</w>": 4820,
      "鐵</w>": 4821,
      "样</w>": 4822,
      "☆</w>": 4823,
      "首</w>": 4824,
      "ĸ</w>": 4825,
      "健</w>": 4826,
      "難</w>": 4827,
      "底</w>": 4828,
      "+</w>": 4829,
      "ው</w>": 4830,
      "ɚ</w>": 4831,
      "课</w>": 4832,
      "师</w>": 4833,
      "ဝ</w>": 4834,
      "六</w>": 4835,
      "晏</w>": 4836,
      "块</w>": 4837,
      "▪</w>": 4838,
      "℮</w>": 4839,
      "/</w>": 4840,
      "；</w>": 4841,
      "流</w>": 4842,
      "隆</w>": 4843,
      "探</w>": 4844,
      "₩</w>": 4845,
      "ｲ</w>": 4846,
      "蹟</w>": 4847,
      "･</w>": 4848,
      "Ꭲ</w>": 4849,
      "域</w>": 4850,
      "册</w>": 4851,
      "ѳ</w>": 4852,
      "颖</w>": 4853,
      "‎</w>": 4854,
      "ㅡ</w>": 4855,
      "費</w>": 4856,
      "ዓ</w>": 4857,
      "転</w>": 4858,
      "务</w>": 4859,
      "♀</w>": 4860,
      "七</w>": 4861,
      "潟</w>": 4862,
      "</w>": 4863,
      "を</w>": 4864,
      "अ</w>": 4865,
      "₤</w>": 4866,
      "സ</w>": 4867,
      "１</w>": 4868,
      "૧</w>": 4869,
      "奸</w>": 4870,
      "℔</w>": 4871,
      "򮬩</w>": 4872,
      "ゃ</w>": 4873,
      "en</w>": 4874,
      "er": 4875,
      "in": 4876,
      "th": 4877,
      "an": 4878,
      "ch": 4879,
      "en": 4880,
      "er</w>": 4881,
      "un": 4882,
      "ti": 4883,
      "the</w>": 4884,
      "re": 4885,
      "ar": 4886,
      "on": 4887,
      "st": 4888,
      "di": 4889,
      "on</w>": 4890,
      "or": 4891,
      "li": 4892,
      "ei": 4893,
      "es</w>": 4894,
      "al": 4895,
      "ro": 4896,
      "ch</w>": 4897,
      "si": 4898,
      "in</w>": 4899,
      "el": 4900,
      "es": 4901,
      "der</w>": 4902,
      "is": 4903,
      "at": 4904,
      "au": 4905,
      "and</w>": 4906,
      "of</w>": 4907,
      "wi": 4908,
      "ein": 4909,
      "to</w>": 4910,
      "und</w>": 4911,
      "die</w>": 4912,
      "ra": 4913,
      "ed</w>": 4914,
      "ur": 4915,
      "is</w>": 4916,
      "om": 4917,
      "as</w>": 4918,
      "ing</w>": 4919,
      "den</w>": 4920,
      "at</w>": 4921,
      "sch": 4922,
      "it": 4923,
      "be": 4924,
      "ur</w>": 4925,
      "de": 4926,
      "ati": 4927,
      "ge": 4928,
      "an</w>": 4929,
      "as": 4930,
      "or</w>": 4931,
      "ung</w>": 4932,
      "us": 4933,
      "ri": 4934,
      "ol": 4935,
      "al</w>": 4936,
      "gen</w>": 4937,
      "te</w>": 4938,
      "ten</w>": 4939,
      "ab": 4940,
      "am": 4941,
      "ver": 4942,
      "le": 4943,
      "ent</w>": 4944,
      "ent": 4945,
      "ter": 4946,
      "le</w>": 4947,
      "it</w>": 4948,
      "ul": 4949,
      "der": 4950,
      "te": 4951,
      "sp": 4952,
      "ah": 4953,
      "ve</w>": 4954,
      "ac": 4955,
      "eh": 4956,
      "ie</w>": 4957,
      "ge</w>": 4958,
      "pro": 4959,
      "Th": 4960,
      "ly</w>": 4961,
      "ec": 4962,
      "de</w>": 4963,
      "vi": 4964,
      "ich": 4965,
      "zu</w>": 4966,
      "no": 4967,
      "that</w>": 4968,
      "et": 4969,
      "chen</w>": 4970,
      "em": 4971,
      "lo": 4972,
      "for</w>": 4973,
      "hi": 4974,
      "ff": 4975,
      "omm": 4976,
      "von</w>": 4977,
      "po": 4978,
      "ation</w>": 4979,
      "th</w>": 4980,
      "ho": 4981,
      "tion</w>": 4982,
      "ub": 4983,
      "are</w>": 4984,
      "con": 4985,
      "ut": 4986,
      "ce</w>": 4987,
      "ist</w>": 4988,
      "ne": 4989,
      "for": 4990,
      "wer": 4991,
      "il": 4992,
      "fur</w>": 4993,
      "ma": 4994,
      "mo": 4995,
      "eine</w>": 4996,
      "uro": 4997,
      "ar</w>": 4998,
      "se</w>": 4999,
      "ha": 5000,
      "des</w>": 5001,
      "urop": 5002,
      "co": 5003,
      "ts</w>": 5004,
      "gen": 5005,
      "ru": 5006,
      "ci": 5007,
      "gi": 5008,
      "st</w>": 5009,
      "be</w>": 5010,
      "mit</w>": 5011,
      "ut</w>": 5012,
      "auf</w>": 5013,
      "op": 5014,
      "ta": 5015,
      "um</w>": 5016,
      "ein</w>": 5017,
      "Ver": 5018,
      "yo": 5019,
      "su": 5020,
      "eit</w>": 5021,
      "with</w>": 5022,
      "la": 5023,
      "das</w>": 5024,
      "em</w>": 5025,
      "che</w>": 5026,
      "The</w>": 5027,
      "Europ": 5028,
      "ell": 5029,
      "im": 5030,
      "icht</w>": 5031,
      "ation": 5032,
      "ex": 5033,
      "qu": 5034,
      "da": 5035,
      "ser": 5036,
      "dies": 5037,
      "af": 5038,
      "Un": 5039,
      "ungen</w>": 5040,
      "In": 5041,
      "du": 5042,
      "so</w>": 5043,
      "and": 5044,
      "An": 5045,
      "tion": 5046,
      "St": 5047,
      "sion</w>": 5048,
      "fi": 5049,
      "ter</w>": 5050,
      "ck": 5051,
      "so": 5052,
      "lich</w>": 5053,
      "dem</w>": 5054,
      "por": 5055,
      "hr": 5056,
      "com": 5057,
      "this</w>": 5058,
      "im</w>": 5059,
      "ad": 5060,
      "ag": 5061,
      "ie": 5062,
      "wor": 5063,
      "ll</w>": 5064,
      "us</w>": 5065,
      "ran": 5066,
      "se": 5067,
      "ber": 5068,
      "wh": 5069,
      "nen</w>": 5070,
      "tra": 5071,
      "Sie</w>": 5072,
      "ass</w>": 5073,
      "ug": 5074,
      "wir": 5075,
      "sen</w>": 5076,
      "wei": 5077,
      "zi": 5078,
      "nicht</w>": 5079,
      "ung": 5080,
      "Re": 5081,
      "all</w>": 5082,
      "ach": 5083,
      "by</w>": 5084,
      "not</w>": 5085,
      "werden</w>": 5086,
      "um": 5087,
      "ate</w>": 5088,
      "ind</w>": 5089,
      "we</w>": 5090,
      "ap": 5091,
      "ere</w>": 5092,
      "res": 5093,
      "we": 5094,
      "dass</w>": 5095,
      "den": 5096,
      "have</w>": 5097,
      "to": 5098,
      "ahr": 5099,
      "ke</w>": 5100,
      "als</w>": 5101,
      "lie": 5102,
      "par": 5103,
      "sich</w>": 5104,
      "ment</w>": 5105,
      "whi": 5106,
      "per": 5107,
      "Die</w>": 5108,
      "aus": 5109,
      "ges": 5110,
      "tim": 5111,
      "you</w>": 5112,
      "ischen</w>": 5113,
      "ali": 5114,
      "wir</w>": 5115,
      "ig": 5116,
      "hal": 5117,
      "uld</w>": 5118,
      "do": 5119,
      "all": 5120,
      "was</w>": 5121,
      "tu": 5122,
      "men</w>": 5123,
      "will</w>": 5124,
      "kon": 5125,
      "ir": 5126,
      "rom</w>": 5127,
      "auch</w>": 5128,
      "which</w>": 5129,
      "Sch": 5130,
      "ich</w>": 5131,
      "ommis": 5132,
      "eb": 5133,
      "ing": 5134,
      "mus": 5135,
      "Be": 5136,
      "from</w>": 5137,
      "Pro": 5138,
      "me": 5139,
      "ach</w>": 5140,
      "ers</w>": 5141,
      "fu": 5142,
      "Par": 5143,
      "20": 5144,
      "hab": 5145,
      "our</w>": 5146,
      "sind</w>": 5147,
      "wo": 5148,
      "ents</w>": 5149,
      "ther</w>": 5150,
      "cht</w>": 5151,
      "En": 5152,
      "ungs": 5153,
      "einer</w>": 5154,
      "Ho": 5155,
      "ds</w>": 5156,
      "pl": 5157,
      "wen": 5158,
      "wird</w>": 5159,
      "ty</w>": 5160,
      "uber</w>": 5161,
      "bes": 5162,
      "gh": 5163,
      "wie</w>": 5164,
      "lei": 5165,
      "einen</w>": 5166,
      "fin": 5167,
      "dur": 5168,
      "has</w>": 5169,
      "est": 5170,
      "ber</w>": 5171,
      "schaf": 5172,
      "one</w>": 5173,
      "lu": 5174,
      "bo": 5175,
      "sa": 5176,
      "ic": 5177,
      "ess</w>": 5178,
      "tern": 5179,
      "zu": 5180,
      "ure</w>": 5181,
      "gan": 5182,
      "able</w>": 5183,
      "bei": 5184,
      "aus</w>": 5185,
      "sten</w>": 5186,
      "ili": 5187,
      "Ar": 5188,
      "form": 5189,
      "Au": 5190,
      "stell": 5191,
      "ts": 5192,
      "ark": 5193,
      "el</w>": 5194,
      "ity</w>": 5195,
      "In</w>": 5196,
      "sol": 5197,
      "ander": 5198,
      "can</w>": 5199,
      "ommission</w>": 5200,
      "ver</w>": 5201,
      "wur": 5202,
      "tel</w>": 5203,
      "out</w>": 5204,
      "ten": 5205,
      "ean</w>": 5206,
      "oder</w>": 5207,
      "Ber": 5208,
      "ted</w>": 5209,
      "gt</w>": 5210,
      "ert</w>": 5211,
      "ir</w>": 5212,
      "etz": 5213,
      "gro": 5214,
      "gra": 5215,
      "vor": 5216,
      "man": 5217,
      "bei</w>": 5218,
      "hat</w>": 5219,
      "rec": 5220,
      "und": 5221,
      "Er": 5222,
      "comp": 5223,
      "et</w>": 5224,
      "Di": 5225,
      "poli": 5226,
      "off": 5227,
      "ehr</w>": 5228,
      "me</w>": 5229,
      "sti": 5230,
      "haben</w>": 5231,
      "wel": 5232,
      "also</w>": 5233,
      "lich": 5234,
      "sho": 5235,
      "ak": 5236,
      "ally</w>": 5237,
      "European</w>": 5238,
      "kan": 5239,
      "auf": 5240,
      "Her": 5241,
      "dent</w>": 5242,
      "geb": 5243,
      "eren</w>": 5244,
      "ion</w>": 5245,
      "200": 5246,
      "Aus": 5247,
      "sel": 5248,
      "utz": 5249,
      "ine</w>": 5250,
      "lichen</w>": 5251,
      "ern</w>": 5252,
      "schen</w>": 5253,
      "men": 5254,
      "tr": 5255,
      "am</w>": 5256,
      "ated</w>": 5257,
      "sen": 5258,
      "wa": 5259,
      "he": 5260,
      "go": 5261,
      "tic": 5262,
      "gel": 5263,
      "ant</w>": 5264,
      "sie</w>": 5265,
      "ore</w>": 5266,
      "war": 5267,
      "aten</w>": 5268,
      "ey</w>": 5269,
      "je": 5270,
      "vo": 5271,
      "its</w>": 5272,
      "ep": 5273,
      "ese</w>": 5274,
      "tions</w>": 5275,
      "sident</w>": 5276,
      "pe": 5277,
      "lan": 5278,
      "tri": 5279,
      "zur</w>": 5280,
      "tet</w>": 5281,
      "len</w>": 5282,
      "gu": 5283,
      "dar": 5284,
      "Mit": 5285,
      "end</w>": 5286,
      "age</w>": 5287,
      "duc": 5288,
      "port</w>": 5289,
      "einem</w>": 5290,
      "ger": 5291,
      "Al": 5292,
      "min": 5293,
      "Union</w>": 5294,
      "ates</w>": 5295,
      "coun": 5296,
      "Das</w>": 5297,
      "Ein": 5298,
      "ations</w>": 5299,
      "yst": 5300,
      "res</w>": 5301,
      "tive</w>": 5302,
      "unser": 5303,
      "sion": 5304,
      "son": 5305,
      "your</w>": 5306,
      "ding</w>": 5307,
      "sta": 5308,
      "very</w>": 5309,
      "Pre": 5310,
      "king</w>": 5311,
      "erung</w>": 5312,
      "pos": 5313,
      "tel": 5314,
      "est</w>": 5315,
      "Ab": 5316,
      "tung</w>": 5317,
      "fre": 5318,
      "las": 5319,
      "ische</w>": 5320,
      "Ich</w>": 5321,
      "ft</w>": 5322,
      "konnen</w>": 5323,
      "liche</w>": 5324,
      "mer</w>": 5325,
      "ob": 5326,
      "Ma": 5327,
      "ces</w>": 5328,
      "pre": 5329,
      "ck</w>": 5330,
      "up</w>": 5331,
      "chn": 5332,
      "vol": 5333,
      "sh": 5334,
      "but</w>": 5335,
      "more</w>": 5336,
      "pp": 5337,
      "keit</w>": 5338,
      "bu": 5339,
      "zei": 5340,
      "ary</w>": 5341,
      "fol": 5342,
      "We</w>": 5343,
      "inc": 5344,
      "Vor": 5345,
      "bet": 5346,
      "19": 5347,
      "Fra": 5348,
      "ken</w>": 5349,
      "geh": 5350,
      "str": 5351,
      "ance</w>": 5352,
      "00</w>": 5353,
      "vel": 5354,
      "pri": 5355,
      "kt</w>": 5356,
      "pres": 5357,
      "ties</w>": 5358,
      "ament</w>": 5359,
      "br": 5360,
      "chti": 5361,
      "ern": 5362,
      "eir</w>": 5363,
      "ven</w>": 5364,
      "comm": 5365,
      "would</w>": 5366,
      "Sp": 5367,
      "eri": 5368,
      "inter": 5369,
      "ting</w>": 5370,
      "ihr": 5371,
      "chte</w>": 5372,
      "fuhr": 5373,
      "gr": 5374,
      "their</w>": 5375,
      "komm": 5376,
      "mit": 5377,
      "tho": 5378,
      "cy</w>": 5379,
      "Ent": 5380,
      "ari": 5381,
      "ess": 5382,
      "ger</w>": 5383,
      "fo": 5384,
      "Kon": 5385,
      "durch</w>": 5386,
      "nach</w>": 5387,
      "been</w>": 5388,
      "Europa": 5389,
      "og": 5390,
      "ste</w>": 5391,
      "wurde</w>": 5392,
      "ehen</w>": 5393,
      "Co": 5394,
      "rit": 5395,
      "zum</w>": 5396,
      "uns</w>": 5397,
      "tei": 5398,
      "This</w>": 5399,
      "gre": 5400,
      "hin": 5401,
      "Pra": 5402,
      "ne</w>": 5403,
      "diese</w>": 5404,
      "ort</w>": 5405,
      "man</w>": 5406,
      "wn</w>": 5407,
      "It</w>": 5408,
      "..": 5409,
      "Wir</w>": 5410,
      "EU</w>": 5411,
      "eg": 5412,
      "fac": 5413,
      "nur</w>": 5414,
      "Ges": 5415,
      "stri": 5416,
      "other</w>": 5417,
      "vor</w>": 5418,
      "ous</w>": 5419,
      "spec": 5420,
      "ase</w>": 5421,
      "ad</w>": 5422,
      "tro": 5423,
      "Mr</w>": 5424,
      "tre": 5425,
      "iel": 5426,
      "port": 5427,
      "ih": 5428,
      "use</w>": 5429,
      "should</w>": 5430,
      "kann</w>": 5431,
      "sam": 5432,
      "do</w>": 5433,
      "her": 5434,
      "od</w>": 5435,
      "ori": 5436,
      "lin": 5437,
      "stru": 5438,
      "ded</w>": 5439,
      "any</w>": 5440,
      "dern</w>": 5441,
      "are": 5442,
      "Der</w>": 5443,
      "unter": 5444,
      "eiten</w>": 5445,
      "ben</w>": 5446,
      "ye": 5447,
      "gn": 5448,
      "ble": 5449,
      "dis": 5450,
      "sib": 5451,
      "ks</w>": 5452,
      "sich": 5453,
      "ord": 5454,
      "ence</w>": 5455,
      "ist": 5456,
      "schaft</w>": 5457,
      "fen</w>": 5458,
      "ember</w>": 5459,
      "dieser</w>": 5460,
      "neu": 5461,
      "noch</w>": 5462,
      "tw": 5463,
      "acc": 5464,
      "uber": 5465,
      "mu": 5466,
      "lar": 5467,
      "fe": 5468,
      "Commission</w>": 5469,
      "mark": 5470,
      "For": 5471,
      "nah": 5472,
      "sec": 5473,
      "fer": 5474,
      "ens</w>": 5475,
      "som": 5476,
      "ves</w>": 5477,
      "bt</w>": 5478,
      "ard</w>": 5479,
      "Es</w>": 5480,
      "time</w>": 5481,
      "bi": 5482,
      "...</w>": 5483,
      "ast</w>": 5484,
      "mon": 5485,
      "must</w>": 5486,
      "dan": 5487,
      "ise</w>": 5488,
      "ale</w>": 5489,
      "sche</w>": 5490,
      "amp": 5491,
      "ational</w>": 5492,
      "Po": 5493,
      "ens": 5494,
      "stan": 5495,
      "daß</w>": 5496,
      "heit</w>": 5497,
      "So": 5498,
      "day</w>": 5499,
      "Gr": 5500,
      "ght</w>": 5501,
      "ic</w>": 5502,
      "tz": 5503,
      "Kommission</w>": 5504,
      "they</w>": 5505,
      "stat": 5506,
      "Ge": 5507,
      "war</w>": 5508,
      "there</w>": 5509,
      "new</w>": 5510,
      "av": 5511,
      "cial</w>": 5512,
      "ments</w>": 5513,
      "syst": 5514,
      "now</w>": 5515,
      "ms</w>": 5516,
      "like</w>": 5517,
      "groß": 5518,
      "only</w>": 5519,
      "ass": 5520,
      "ings</w>": 5521,
      "lung</w>": 5522,
      "he</w>": 5523,
      "pr": 5524,
      "Hotel</w>": 5525,
      "gesch": 5526,
      "eff": 5527,
      "eu": 5528,
      "alle</w>": 5529,
      "ben": 5530,
      "fahr": 5531,
      "jec": 5532,
      "land</w>": 5533,
      "inn": 5534,
      "alen</w>": 5535,
      "ann": 5536,
      "aber</w>": 5537,
      "cre": 5538,
      "leg": 5539,
      "President</w>": 5540,
      "wick": 5541,
      "tran": 5542,
      "elt</w>": 5543,
      "tn": 5544,
      "about</w>": 5545,
      "mp": 5546,
      "produc": 5547,
      "oh": 5548,
      "work</w>": 5549,
      "sein</w>": 5550,
      "wenn</w>": 5551,
      "Sta": 5552,
      "fir": 5553,
      "gram": 5554,
      "ys</w>": 5555,
      "ehmen</w>": 5556,
      "immer</w>": 5557,
      "Ih": 5558,
      "Herr</w>": 5559,
      "kt": 5560,
      "ugh</w>": 5561,
      "ong</w>": 5562,
      "sehr</w>": 5563,
      "ehr": 5564,
      "mussen</w>": 5565,
      "end": 5566,
      "intern": 5567,
      "ws</w>": 5568,
      "De": 5569,
      "det</w>": 5570,
      "ely</w>": 5571,
      "way</w>": 5572,
      "Mitg": 5573,
      "eines</w>": 5574,
      "gem": 5575,
      "ubli": 5576,
      "timm": 5577,
      "ars</w>": 5578,
      "Auf": 5579,
      "Parl": 5580,
      "ace</w>": 5581,
      "qui": 5582,
      "ven": 5583,
      "spe": 5584,
      "han": 5585,
      "ral</w>": 5586,
      "these</w>": 5587,
      "ast": 5588,
      "ze</w>": 5589,
      "Jahr": 5590,
      "lau": 5591,
      "who</w>": 5592,
      "ust</w>": 5593,
      "ba": 5594,
      "lat": 5595,
      "conc": 5596,
      "no</w>": 5597,
      "chan": 5598,
      "mehr</w>": 5599,
      "stand": 5600,
      "usam": 5601,
      "dung</w>": 5602,
      "enden</w>": 5603,
      "los": 5604,
      "fore</w>": 5605,
      "cri": 5606,
      "red</w>": 5607,
      "onder": 5608,
      "with": 5609,
      "id</w>": 5610,
      "Mo": 5611,
      "ors</w>": 5612,
      "if</w>": 5613,
      "ple": 5614,
      "mer": 5615,
      "regi": 5616,
      "ause</w>": 5617,
      "ved</w>": 5618,
      "zw": 5619,
      "reg": 5620,
      "net</w>": 5621,
      "diesem</w>": 5622,
      "up": 5623,
      "zen</w>": 5624,
      "devel": 5625,
      "berei": 5626,
      "Men": 5627,
      "ative</w>": 5628,
      "ful": 5629,
      "Regi": 5630,
      "aff": 5631,
      "ople</w>": 5632,
      "most</w>": 5633,
      "hand": 5634,
      "weiter": 5635,
      "re</w>": 5636,
      "Mitglie": 5637,
      "sup": 5638,
      "servi": 5639,
      "cont": 5640,
      "dies</w>": 5641,
      "ans</w>": 5642,
      "posi": 5643,
      "many</w>": 5644,
      "fra": 5645,
      "Ihr": 5646,
      "ility</w>": 5647,
      "10</w>": 5648,
      "ther": 5649,
      "Um": 5650,
      "provi": 5651,
      "reich": 5652,
      "isch": 5653,
      "kommen</w>": 5654,
      "setz": 5655,
      "mog": 5656,
      "Europaischen</w>": 5657,
      "tes</w>": 5658,
      "hei": 5659,
      "ron": 5660,
      "inform": 5661,
      "under": 5662,
      "fun": 5663,
      "liament</w>": 5664,
      "import": 5665,
      "des": 5666,
      "were</w>": 5667,
      "Europe</w>": 5668,
      "vie": 5669,
      "Bes": 5670,
      "da</w>": 5671,
      "steh": 5672,
      "onom": 5673,
      "ld</w>": 5674,
      "gew": 5675,
      "woh": 5676,
      "come</w>": 5677,
      "elle</w>": 5678,
      "ement</w>": 5679,
      "ließ": 5680,
      "into</w>": 5681,
      "people</w>": 5682,
      "ht</w>": 5683,
      "kun": 5684,
      "such</w>": 5685,
      "Parliament</w>": 5686,
      "proc": 5687,
      "soll": 5688,
      "il</w>": 5689,
      "loc": 5690,
      "om</w>": 5691,
      "os": 5692,
      "oper": 5693,
      "ving</w>": 5694,
      "fe</w>": 5695,
      "arbei": 5696,
      "stitu": 5697,
      "politi": 5698,
      "ges</w>": 5699,
      "bis</w>": 5700,
      "well</w>": 5701,
      "schla": 5702,
      "my</w>": 5703,
      "schie": 5704,
      "what</w>": 5705,
      "ationen</w>": 5706,
      "pra": 5707,
      "emp": 5708,
      "hel": 5709,
      "Con": 5710,
      "publi": 5711,
      "rel": 5712,
      "sible</w>": 5713,
      "Unter": 5714,
      "europ": 5715,
      "cent": 5716,
      "develop": 5717,
      "sub": 5718,
      "ute</w>": 5719,
      "rech": 5720,
      "mochte</w>": 5721,
      "ite</w>": 5722,
      "rie": 5723,
      "Me": 5724,
      "lus": 5725,
      "uck": 5726,
      "enn": 5727,
      "ction</w>": 5728,
      "ful</w>": 5729,
      "glei": 5730,
      "ant": 5731,
      "diff": 5732,
      "ini": 5733,
      "dam": 5734,
      "unter</w>": 5735,
      "doch</w>": 5736,
      "Ger": 5737,
      "Inter": 5738,
      "viel": 5739,
      "halten</w>": 5740,
      "pa": 5741,
      "States</w>": 5742,
      "ahl": 5743,
      "forder": 5744,
      "fa": 5745,
      "techn": 5746,
      "sat": 5747,
      "tries</w>": 5748,
      "No": 5749,
      "jo": 5750,
      "lic": 5751,
      "than</w>": 5752,
      "speci": 5753,
      "tur": 5754,
      "rei": 5755,
      "art</w>": 5756,
      "stutz": 5757,
      "kte</w>": 5758,
      "usammen": 5759,
      "Coun": 5760,
      "cc": 5761,
      "illi": 5762,
      "mat": 5763,
      "report</w>": 5764,
      "wichti": 5765,
      "inclu": 5766,
      "Member</w>": 5767,
      "stellen</w>": 5768,
      "thro": 5769,
      "europa": 5770,
      "countries</w>": 5771,
      "bec": 5772,
      "Bo": 5773,
      "ating</w>": 5774,
      "dig": 5775,
      "vom</w>": 5776,
      "cle": 5777,
      "kra": 5778,
      "his</w>": 5779,
      "ph": 5780,
      "when</w>": 5781,
      "tionen</w>": 5782,
      "ory</w>": 5783,
      "tigen</w>": 5784,
      "aga": 5785,
      "nam": 5786,
      "Ch": 5787,
      "need</w>": 5788,
      "gibt</w>": 5789,
      "ihre</w>": 5790,
      "ende</w>": 5791,
      "Ro": 5792,
      "Mitglied": 5793,
      "uni": 5794,
      "Uber": 5795,
      "poin": 5796,
      "ack": 5797,
      "econom": 5798,
      "cil</w>": 5799,
      "sch</w>": 5800,
      "beg": 5801,
      "ellen</w>": 5802,
      "first</w>": 5803,
      "some</w>": 5804,
      "wis": 5805,
      "les</w>": 5806,
      "nach": 5807,
      "bre": 5808,
      "col": 5809,
      "sis</w>": 5810,
      "sowie</w>": 5811,
      "hotel</w>": 5812,
      "kti": 5813,
      "geben</w>": 5814,
      "Council</w>": 5815,
      "tig</w>": 5816,
      "sign": 5817,
      "direc": 5818,
      "wer</w>": 5819,
      "tical</w>": 5820,
      "Or": 5821,
      "Prasident</w>": 5822,
      "get</w>": 5823,
      "etzt</w>": 5824,
      "Comm": 5825,
      "dieses</w>": 5826,
      "rau": 5827,
      "bie": 5828,
      "agre": 5829,
      "make</w>": 5830,
      "them</w>": 5831,
      "schließ": 5832,
      "deut": 5833,
      "mi": 5834,
      "ween</w>": 5835,
      "ack</w>": 5836,
      "zwischen</w>": 5837,
      "Bei": 5838,
      "kl": 5839,
      "app": 5840,
      "besonder": 5841,
      "ins</w>": 5842,
      "stellt</w>": 5843,
      "ateg": 5844,
      "vern": 5845,
      "form</w>": 5846,
      "ment": 5847,
      "ko": 5848,
      "inu": 5849,
      "ell</w>": 5850,
      "important</w>": 5851,
      "thing</w>": 5852,
      "between</w>": 5853,
      "ank</w>": 5854,
      "olog": 5855,
      "tat</w>": 5856,
      "eng": 5857,
      "eing</w>": 5858,
      "denen</w>": 5859,
      "ust": 5860,
      "tschaf": 5861,
      "over</w>": 5862,
      "beit</w>": 5863,
      "Qu": 5864,
      "here</w>": 5865,
      "system</w>": 5866,
      "Li": 5867,
      "ality</w>": 5868,
      "take</w>": 5869,
      "halb</w>": 5870,
      "Entwick": 5871,
      "ange": 5872,
      "exc": 5873,
      "ev": 5874,
      "propos": 5875,
      "peri": 5876,
      "wurden</w>": 5877,
      "hier</w>": 5878,
      "because</w>": 5879,
      "Su": 5880,
      "tic</w>": 5881,
      "Mitgliedsta": 5882,
      "cul": 5883,
      "unden</w>": 5884,
      "wal": 5885,
      "To": 5886,
      "exp": 5887,
      "Ko": 5888,
      "Per": 5889,
      "iel</w>": 5890,
      "pe</w>": 5891,
      "ater</w>": 5892,
      "where</w>": 5893,
      "ani": 5894,
      "ser</w>": 5895,
      "bar": 5896,
      "ahr</w>": 5897,
      "Arbei": 5898,
      "ener": 5899,
      "same</w>": 5900,
      "Mar": 5901,
      "ide": 5902,
      "bar</w>": 5903,
      "bin": 5904,
      "199": 5905,
      "finan": 5906,
      "fall": 5907,
      "muss</w>": 5908,
      "chten</w>": 5909,
      "sk": 5910,
      "ice</w>": 5911,
      "mis": 5912,
      "Zu": 5913,
      "ture</w>": 5914,
      "nat": 5915,
      "Bericht</w>": 5916,
      "proble": 5917,
      "Se": 5918,
      "nec": 5919,
      "eben</w>": 5920,
      "spon": 5921,
      "wie": 5922,
      "gegen</w>": 5923,
      "enn</w>": 5924,
      "sions</w>": 5925,
      "fur": 5926,
      "unsere</w>": 5927,
      "fic": 5928,
      "keine</w>": 5929,
      "just</w>": 5930,
      "made</w>": 5931,
      "reas": 5932,
      "Parlament</w>": 5933,
      "tig": 5934,
      "arly</w>": 5935,
      "Fin": 5936,
      "enti": 5937,
      "ying</w>": 5938,
      "information</w>": 5939,
      "Bur": 5940,
      "Berei": 5941,
      "line</w>": 5942,
      "two</w>": 5943,
      "organ": 5944,
      "hen</w>": 5945,
      "Mon": 5946,
      "xt</w>": 5947,
      "order</w>": 5948,
      "Gro": 5949,
      "Ex": 5950,
      "Ihnen</w>": 5951,
      "had</w>": 5952,
      "erk": 5953,
      "ail": 5954,
      "fug": 5955,
      "shi": 5956,
      "Ser": 5957,
      "ris": 5958,
      "person": 5959,
      "sts</w>": 5960,
      "ren": 5961,
      "siden": 5962,
      "years</w>": 5963,
      "ige</w>": 5964,
      "wahr": 5965,
      "ktion</w>": 5966,
      "ler</w>": 5967,
      "nis": 5968,
      "Mitgliedstaaten</w>": 5969,
      "can": 5970,
      "dr": 5971,
      "finden</w>": 5972,
      "ster</w>": 5973,
      "sive</w>": 5974,
      "support</w>": 5975,
      "anderen</w>": 5976,
      "tlich</w>": 5977,
      "Gesch": 5978,
      "medi": 5979,
      "right</w>": 5980,
      "her</w>": 5981,
      "world</w>": 5982,
      "ons</w>": 5983,
      "If</w>": 5984,
      "Fre": 5985,
      "ular</w>": 5986,
      "Produ": 5987,
      "Inform": 5988,
      "issu": 5989,
      "sm": 5990,
      "tor</w>": 5991,
      "those</w>": 5992,
      "num": 5993,
      "dru": 5994,
      "erte</w>": 5995,
      "steht</w>": 5996,
      "respon": 5997,
      "ok</w>": 5998,
      "Europa</w>": 5999,
      "read": 6000,
      "low</w>": 6001,
      "wirk": 6002,
      "letz": 6003,
      "weise</w>": 6004,
      "Lan": 6005,
      "Proble": 6006,
      "liti": 6007,
      "try</w>": 6008,
      "site</w>": 6009,
      "Zusammen": 6010,
      "20</w>": 6011,
      "ps</w>": 6012,
      "tional</w>": 6013,
      "Wir": 6014,
      "wever</w>": 6015,
      "fri": 6016,
      "lichkeit</w>": 6017,
      "keiten</w>": 6018,
      "indi": 6019,
      "being</w>": 6020,
      "ets</w>": 6021,
      "ghts</w>": 6022,
      "ele": 6023,
      "ff</w>": 6024,
      "hat": 6025,
      "trag</w>": 6026,
      "la</w>": 6027,
      "unity</w>": 6028,
      "sto": 6029,
      "ften</w>": 6030,
      "ga": 6031,
      "Wenn</w>": 6032,
      "ses</w>": 6033,
      "policy</w>": 6034,
      "fan": 6035,
      "stu": 6036,
      "konn": 6037,
      "oms</w>": 6038,
      "dann</w>": 6039,
      "appro": 6040,
      "tige</w>": 6041,
      "cal</w>": 6042,
      "ze": 6043,
      "ste": 6044,
      "Ne": 6045,
      "ou</w>": 6046,
      "pla": 6047,
      "Bu": 6048,
      "partic": 6049,
      "un</w>": 6050,
      "Nach": 6051,
      "Wei": 6052,
      "consi": 6053,
      "schei": 6054,
      "stra": 6055,
      "pf": 6056,
      "belie": 6057,
      "Te": 6058,
      "enen</w>": 6059,
      "lob": 6060,
      "tain</w>": 6061,
      "nung</w>": 6062,
      "Bet": 6063,
      "hol": 6064,
      "cur": 6065,
      "ently</w>": 6066,
      "tly</w>": 6067,
      "ke": 6068,
      "stehen</w>": 6069,
      "ausge": 6070,
      "cour": 6071,
      "Do": 6072,
      "may</w>": 6073,
      "ins": 6074,
      "dat": 6075,
      "gement</w>": 6076,
      "nahmen</w>": 6077,
      "Im</w>": 6078,
      "damit</w>": 6079,
      "diesen</w>": 6080,
      "differ": 6081,
      "ems</w>": 6082,
      "cra": 6083,
      "even</w>": 6084,
      "place</w>": 6085,
      "gab": 6086,
      "see</w>": 6087,
      "mal</w>": 6088,
      "oren</w>": 6089,
      "tee</w>": 6090,
      "lev": 6091,
      "part</w>": 6092,
      "Mark": 6093,
      "pen": 6094,
      "deci": 6095,
      "used</w>": 6096,
      "andern</w>": 6097,
      "year</w>": 6098,
      "Kol": 6099,
      "demo": 6100,
      "onen</w>": 6101,
      "situ": 6102,
      "gemein": 6103,
      "view</w>": 6104,
      "ures</w>": 6105,
      "Ander": 6106,
      "bur": 6107,
      "efore</w>": 6108,
      "ress</w>": 6109,
      "wing</w>": 6110,
      "os</w>": 6111,
      "good</w>": 6112,
      "We": 6113,
      "possible</w>": 6114,
      "hum": 6115,
      "auß": 6116,
      "then</w>": 6117,
      "cer": 6118,
      "tt": 6119,
      "Tei": 6120,
      "ol</w>": 6121,
      "ier": 6122,
      "inv": 6123,
      "ien</w>": 6124,
      "Frau</w>": 6125,
      "lage</w>": 6126,
      "Zeit</w>": 6127,
      "led</w>": 6128,
      "Diese</w>": 6129,
      "stau": 6130,
      "car": 6131,
      "area</w>": 6132,
      "ect</w>": 6133,
      "unkt</w>": 6134,
      "Geb": 6135,
      "ased</w>": 6136,
      "omp": 6137,
      "zug": 6138,
      "au</w>": 6139,
      "how</w>": 6140,
      "public</w>": 6141,
      "ject</w>": 6142,
      "ution</w>": 6143,
      "cap": 6144,
      "wohl</w>": 6145,
      "act</w>": 6146,
      "Min": 6147,
      "unserer</w>": 6148,
      "sei": 6149,
      "tungen</w>": 6150,
      "Sich": 6151,
      "ffen</w>": 6152,
      "comple": 6153,
      "tain": 6154,
      "bil": 6155,
      "Herr": 6156,
      "fas": 6157,
      "ques": 6158,
      "Untern": 6159,
      "besch": 6160,
      "gener": 6161,
      "Gem": 6162,
      "Ihre</w>": 6163,
      "habe</w>": 6164,
      "char": 6165,
      "Rich": 6166,
      "ahl</w>": 6167,
      "genen</w>": 6168,
      "market</w>": 6169,
      "sondern</w>": 6170,
      "ware</w>": 6171,
      "prote": 6172,
      "usin": 6173,
      "ters</w>": 6174,
      "lick</w>": 6175,
      "del</w>": 6176,
      "alle": 6177,
      "seine</w>": 6178,
      "spiel": 6179,
      "dra": 6180,
      "through</w>": 6181,
      "fil": 6182,
      "ue</w>": 6183,
      "after</w>": 6184,
      "50</w>": 6185,
      "Ta": 6186,
      "You</w>": 6187,
      "cor": 6188,
      "Lo": 6189,
      "stand</w>": 6190,
      "Go": 6191,
      "jedoch</w>": 6192,
      "gs</w>": 6193,
      "sig": 6194,
      "legen</w>": 6195,
      "eln</w>": 6196,
      "Europaische</w>": 6197,
      "fam": 6198,
      "ince</w>": 6199,
      "kur": 6200,
      "Stad": 6201,
      "gar": 6202,
      "Grund": 6203,
      "under</w>": 6204,
      "indu": 6205,
      "har": 6206,
      "sur": 6207,
      "000</w>": 6208,
      "ink</w>": 6209,
      "land": 6210,
      "political</w>": 6211,
      "Syst": 6212,
      "per</w>": 6213,
      "allen</w>": 6214,
      "amen</w>": 6215,
      "que</w>": 6216,
      "self</w>": 6217,
      "Wor": 6218,
      "wn": 6219,
      "resul": 6220,
      "economic</w>": 6221,
      "neue</w>": 6222,
      "own</w>": 6223,
      "program": 6224,
      "aup": 6225,
      "oll": 6226,
      "ats": 6227,
      "gent": 6228,
      "Menschen</w>": 6229,
      "spra": 6230,
      "star": 6231,
      "ety</w>": 6232,
      "As</w>": 6233,
      "Bil": 6234,
      "heute</w>": 6235,
      "brau": 6236,
      "cip": 6237,
      "Fran": 6238,
      "sour": 6239,
      "gh</w>": 6240,
      "Maß": 6241,
      "igen</w>": 6242,
      "ster": 6243,
      "ett": 6244,
      "transp": 6245,
      "ages</w>": 6246,
      "could</w>": 6247,
      "gegen": 6248,
      "ingen</w>": 6249,
      "Vorschla": 6250,
      "enz</w>": 6251,
      "tlichen</w>": 6252,
      "side</w>": 6253,
      "ical</w>": 6254,
      "There</w>": 6255,
      "gele": 6256,
      "30</w>": 6257,
      "air": 6258,
      "struc": 6259,
      "ßen</w>": 6260,
      "stauran": 6261,
      "development</w>": 6262,
      "fahren</w>": 6263,
      "ommission": 6264,
      "yp": 6265,
      "within</w>": 6266,
      "Jahr</w>": 6267,
      "inst</w>": 6268,
      "rights</w>": 6269,
      "Rei": 6270,
      "tsp": 6271,
      "ready</w>": 6272,
      "Fo": 6273,
      "want</w>": 6274,
      "sor": 6275,
      "selb": 6276,
      "deb": 6277,
      "room</w>": 6278,
      "schn": 6279,
      "out": 6280,
      "europaischen</w>": 6281,
      "iz": 6282,
      "kann": 6283,
      "besser": 6284,
      "trol": 6285,
      "ame</w>": 6286,
      "For</w>": 6287,
      "bereits</w>": 6288,
      "wei</w>": 6289,
      "gehen</w>": 6290,
      "rich": 6291,
      "eld</w>": 6292,
      "Lei": 6293,
      "tern</w>": 6294,
      "hist": 6295,
      "avail": 6296,
      "Program": 6297,
      "Sicher": 6298,
      "prin": 6299,
      "val": 6300,
      "ohne</w>": 6301,
      "trans": 6302,
      "unterstutz": 6303,
      "geht</w>": 6304,
      "against</w>": 6305,
      "cken</w>": 6306,
      "set</w>": 6307,
      "esen</w>": 6308,
      "both</w>": 6309,
      "cher</w>": 6310,
      "country</w>": 6311,
      "buil": 6312,
      "ommen</w>": 6313,
      "govern": 6314,
      "ability</w>": 6315,
      "mich</w>": 6316,
      "much</w>": 6317,
      "sh</w>": 6318,
      "ihrer</w>": 6319,
      "Dat": 6320,
      "find</w>": 6321,
      "mittel": 6322,
      "international</w>": 6323,
      "enz": 6324,
      "therefore</w>": 6325,
      "point</w>": 6326,
      "sollte</w>": 6327,
      "neuen</w>": 6328,
      "US": 6329,
      "els</w>": 6330,
      "Gemein": 6331,
      "erten</w>": 6332,
      "son</w>": 6333,
      "ct</w>": 6334,
      "Tra": 6335,
      "Jahren</w>": 6336,
      "bers</w>": 6337,
      "fuhrt</w>": 6338,
      "olo": 6339,
      "fort": 6340,
      "ome</w>": 6341,
      "viron": 6342,
      "high</w>": 6343,
      "ight</w>": 6344,
      "zo": 6345,
      "andere</w>": 6346,
      "stre": 6347,
      "enth": 6348,
      "licher</w>": 6349,
      "does</w>": 6350,
      "ig</w>": 6351,
      "thre": 6352,
      "dri": 6353,
      "ktion": 6354,
      "service</w>": 6355,
      "verschie": 6356,
      "ling</w>": 6357,
      "anz": 6358,
      "tom": 6359,
      "nee": 6360,
      "liegt</w>": 6361,
      "vari": 6362,
      "Sit": 6363,
      "Zei": 6364,
      "Pri": 6365,
      "Tur": 6366,
      "lassen</w>": 6367,
      "Rat</w>": 6368,
      "tial</w>": 6369,
      "offent": 6370,
      "free</w>": 6371,
      "fle": 6372,
      "alt</w>": 6373,
      "continu": 6374,
      "einf": 6375,
      "sed</w>": 6376,
      "Chin": 6377,
      "soci": 6378,
      "durch": 6379,
      "ationalen</w>": 6380,
      "without</w>": 6381,
      "quality</w>": 6382,
      "Haus": 6383,
      "ited</w>": 6384,
      "gung</w>": 6385,
      "zwei</w>": 6386,
      "dre": 6387,
      "ittee</w>": 6388,
      "bed": 6389,
      "pi": 6390,
      "clear</w>": 6391,
      "dy</w>": 6392,
      "bro": 6393,
      "ganz</w>": 6394,
      "Entwicklung</w>": 6395,
      "machen</w>": 6396,
      "Besch": 6397,
      "teil": 6398,
      "tlin": 6399,
      "litik</w>": 6400,
      "meas": 6401,
      "stellung</w>": 6402,
      "wirtschaf": 6403,
      "tiv": 6404,
      "ards</w>": 6405,
      "tliche</w>": 6406,
      "Frage</w>": 6407,
      "last</w>": 6408,
      "services</w>": 6409,
      "Lu": 6410,
      "reichen</w>": 6411,
      "ni": 6412,
      "Rech": 6413,
      "number</w>": 6414,
      "sollten</w>": 6415,
      "old</w>": 6416,
      "great</w>": 6417,
      "operation</w>": 6418,
      "Man": 6419,
      "bewer": 6420,
      "bietet</w>": 6421,
      "gri": 6422,
      "institu": 6423,
      "Res": 6424,
      "Berich": 6425,
      "usiness</w>": 6426,
      "still</w>": 6427,
      "zur": 6428,
      "long</w>": 6429,
      "fest": 6430,
      "ble</w>": 6431,
      "antwor": 6432,
      "kno": 6433,
      "ways</w>": 6434,
      "dem": 6435,
      "fut": 6436,
      "go</w>": 6437,
      "kre": 6438,
      "fuhren</w>": 6439,
      "tem": 6440,
      "15</w>": 6441,
      "Fl": 6442,
      "stark": 6443,
      "ftw": 6444,
      "fact</w>": 6445,
      "dig</w>": 6446,
      "innen</w>": 6447,
      "tragen</w>": 6448,
      "ene</w>": 6449,
      "ftware</w>": 6450,
      "ders</w>": 6451,
      "available</w>": 6452,
      "social</w>": 6453,
      "Dur": 6454,
      "say</w>": 6455,
      "tschaft</w>": 6456,
      "schri": 6457,
      "ced</w>": 6458,
      "bel": 6459,
      "kes</w>": 6460,
      "ahlen</w>": 6461,
      "sum": 6462,
      "requi": 6463,
      "ahn": 6464,
      "eti": 6465,
      "12</w>": 6466,
      "win": 6467,
      "leist": 6468,
      "change</w>": 6469,
      "rupp": 6470,
      "different</w>": 6471,
      "sehen</w>": 6472,
      "besondere</w>": 6473,
      "elec": 6474,
      "glob": 6475,
      "ulation</w>": 6476,
      "Ein</w>": 6477,
      "know</w>": 6478,
      "satz</w>": 6479,
      "arch</w>": 6480,
      "city</w>": 6481,
      "less</w>": 6482,
      "ner</w>": 6483,
      "Mog": 6484,
      "curr": 6485,
      "Mit</w>": 6486,
      "cust": 6487,
      "present": 6488,
      "course</w>": 6489,
      "krati": 6490,
      "findet</w>": 6491,
      "urs</w>": 6492,
      "ungsan": 6493,
      "ship</w>": 6494,
      "Nor": 6495,
      "schon</w>": 6496,
      "position</w>": 6497,
      "zahl": 6498,
      "Bar": 6499,
      "viele</w>": 6500,
      "ilit": 6501,
      "ests</w>": 6502,
      "tural</w>": 6503,
      "ital</w>": 6504,
      "zwei": 6505,
      "fast</w>": 6506,
      "dition</w>": 6507,
      "sc": 6508,
      "Am": 6509,
      "ond</w>": 6510,
      "entsp": 6511,
      "ologi": 6512,
      "ed": 6513,
      "ef": 6514,
      "concern": 6515,
      "vidu": 6516,
      "zent": 6517,
      "stal": 6518,
      "Ter": 6519,
      "sicht</w>": 6520,
      "Welt</w>": 6521,
      "clo": 6522,
      "emplo": 6523,
      "lim": 6524,
      "already</w>": 6525,
      "environ": 6526,
      "weil</w>": 6527,
      "atz": 6528,
      "future</w>": 6529,
      "before</w>": 6530,
      "maß": 6531,
      "high": 6532,
      "sy": 6533,
      "ration</w>": 6534,
      "believe</w>": 6535,
      "ici": 6536,
      "priv": 6537,
      "utes</w>": 6538,
      "sicher": 6539,
      "fes": 6540,
      "ked</w>": 6541,
      "Unternehmen</w>": 6542,
      "inten": 6543,
      "halt</w>": 6544,
      "Intern": 6545,
      "Hand": 6546,
      "dazu</w>": 6547,
      "anti": 6548,
      "too</w>": 6549,
      "ult": 6550,
      "alisi": 6551,
      "zus": 6552,
      "tal": 6553,
      "schus": 6554,
      "cho": 6555,
      "Dies": 6556,
      "ies</w>": 6557,
      "Ba": 6558,
      "auth": 6559,
      "Rus": 6560,
      "gy</w>": 6561,
      "uro</w>": 6562,
      "Des": 6563,
      "enst": 6564,
      "ept</w>": 6565,
      "fied</w>": 6566,
      "rooms</w>": 6567,
      "today</w>": 6568,
      "Kin": 6569,
      "zeit</w>": 6570,
      "Vi": 6571,
      "denn</w>": 6572,
      "Str": 6573,
      "ca</w>": 6574,
      "entwick": 6575,
      "Da": 6576,
      "ament": 6577,
      "inte": 6578,
      "wo</w>": 6579,
      "itat</w>": 6580,
      "wieder</w>": 6581,
      "trau": 6582,
      "Off": 6583,
      "ish": 6584,
      "products</w>": 6585,
      "ry</w>": 6586,
      "Tre": 6587,
      "case</w>": 6588,
      "jetzt</w>": 6589,
      "That</w>": 6590,
      "bal": 6591,
      "Them": 6592,
      "Rah": 6593,
      "ft": 6594,
      "Dem": 6595,
      "urity</w>": 6596,
      "main</w>": 6597,
      "mei": 6598,
      "seiner</w>": 6599,
      "Commission": 6600,
      "alo": 6601,
      "ort": 6602,
      "tors</w>": 6603,
      "ollen</w>": 6604,
      "2009</w>": 6605,
      "Tran": 6606,
      "mar": 6607,
      "ka</w>": 6608,
      "level</w>": 6609,
      "Ener": 6610,
      "zieh": 6611,
      "Sa": 6612,
      "some": 6613,
      "tiz": 6614,
      "data</w>": 6615,
      "Is": 6616,
      "assi": 6617,
      "think</w>": 6618,
      "process</w>": 6619,
      "pur": 6620,
      "alitat</w>": 6621,
      "Web": 6622,
      "cus": 6623,
      "Dis": 6624,
      "nahme</w>": 6625,
      "darauf</w>": 6626,
      "com</w>": 6627,
      "Lage</w>": 6628,
      "succ": 6629,
      "cannot</w>": 6630,
      "aher</w>": 6631,
      "ker</w>": 6632,
      "sign</w>": 6633,
      "effec": 6634,
      "ever": 6635,
      "saf": 6636,
      "Informationen</w>": 6637,
      "nisse</w>": 6638,
      "arbeit</w>": 6639,
      "Bereich</w>": 6640,
      "vice</w>": 6641,
      "sozi": 6642,
      "nis</w>": 6643,
      "genommen</w>": 6644,
      "wan": 6645,
      "imm": 6646,
      "isch</w>": 6647,
      "agement</w>": 6648,
      "Hin": 6649,
      "Maßnahmen</w>": 6650,
      "ism</w>": 6651,
      "gestellt</w>": 6652,
      "put</w>": 6653,
      "fully</w>": 6654,
      "Ad": 6655,
      "waren</w>": 6656,
      "utzen</w>": 6657,
      "isti": 6658,
      "ischer</w>": 6659,
      "ements</w>": 6660,
      "individu": 6661,
      "kten</w>": 6662,
      "einige</w>": 6663,
      "nov": 6664,
      "sagen</w>": 6665,
      "rap": 6666,
      "pec": 6667,
      "But</w>": 6668,
      "selbst</w>": 6669,
      "plat": 6670,
      "human</w>": 6671,
      "ente</w>": 6672,
      "ab</w>": 6673,
      "wach": 6674,
      "außer": 6675,
      "Vol": 6676,
      "twen": 6677,
      "dafur</w>": 6678,
      "ately</w>": 6679,
      "hin</w>": 6680,
      "macht</w>": 6681,
      "ler": 6682,
      "offers</w>": 6683,
      "falls</w>": 6684,
      "ample</w>": 6685,
      "adv": 6686,
      "schen": 6687,
      "gesam": 6688,
      "embers</w>": 6689,
      "Mi": 6690,
      "national</w>": 6691,
      "impro": 6692,
      "Person": 6693,
      "uh": 6694,
      "11</w>": 6695,
      "maj": 6696,
      "Stra": 6697,
      "eben": 6698,
      "Medi": 6699,
      "ob</w>": 6700,
      "US</w>": 6701,
      "situation</w>": 6702,
      "Commissioner</w>": 6703,
      "chil": 6704,
      "mir</w>": 6705,
      "gleich": 6706,
      "Herrn</w>": 6707,
      "respec": 6708,
      "imple": 6709,
      "minist": 6710,
      "konnte</w>": 6711,
      "during</w>": 6712,
      "sic</w>": 6713,
      "spo": 6714,
      "best</w>": 6715,
      "ommiss": 6716,
      "Fu": 6717,
      "Stand": 6718,
      "financial</w>": 6719,
      "eter</w>": 6720,
      "ihr</w>": 6721,
      "ning</w>": 6722,
      "call": 6723,
      "nor": 6724,
      "So</w>": 6725,
      "natur": 6726,
      "ining</w>": 6727,
      "moglich</w>": 6728,
      "ihren</w>": 6729,
      "ade</w>": 6730,
      "ang</w>": 6731,
      "hatte</w>": 6732,
      "Kun": 6733,
      "small</w>": 6734,
      "riti": 6735,
      "ual</w>": 6736,
      "ate": 6737,
      "versi": 6738,
      "zeug": 6739,
      "Jahre</w>": 6740,
      "ged</w>": 6741,
      "viel</w>": 6742,
      "Kommiss": 6743,
      "abli": 6744,
      "vely</w>": 6745,
      "Pal": 6746,
      "bud": 6747,
      "Ri": 6748,
      "allem</w>": 6749,
      "said</w>": 6750,
      "zeich": 6751,
      "custom": 6752,
      "bin</w>": 6753,
      "Le": 6754,
      "gend</w>": 6755,
      "including</w>": 6756,
      "Ste": 6757,
      "yment</w>": 6758,
      "Arbeit</w>": 6759,
      "ish</w>": 6760,
      "example</w>": 6761,
      "achie": 6762,
      "issue</w>": 6763,
      "means</w>": 6764,
      "Gu": 6765,
      "ward</w>": 6766,
      "debate</w>": 6767,
      "ve": 6768,
      "fer</w>": 6769,
      "tels</w>": 6770,
      "dam</w>": 6771,
      "ats</w>": 6772,
      "experi": 6773,
      "the": 6774,
      "proposal</w>": 6775,
      "zel": 6776,
      "applic": 6777,
      "every</w>": 6778,
      "genden</w>": 6779,
      "since</w>": 6780,
      "simp": 6781,
      "question</w>": 6782,
      "All</w>": 6783,
      "over": 6784,
      "condi": 6785,
      "ier</w>": 6786,
      "kunft</w>": 6787,
      "text</w>": 6788,
      "ging</w>": 6789,
      "aments</w>": 6790,
      "fic</w>": 6791,
      "iger</w>": 6792,
      "meine</w>": 6793,
      "worden</w>": 6794,
      "though</w>": 6795,
      "az": 6796,
      "Land</w>": 6797,
      "bit": 6798,
      "Dies</w>": 6799,
      "Eine</w>": 6800,
      "Sei": 6801,
      "isl": 6802,
      "resol": 6803,
      "wollen</w>": 6804,
      "business</w>": 6805,
      "ma</w>": 6806,
      "Verein": 6807,
      "gut</w>": 6808,
      "essen": 6809,
      "necess": 6810,
      "lungen</w>": 6811,
      "tin</w>": 6812,
      "stimm": 6813,
      "help</w>": 6814,
      "del": 6815,
      "However</w>": 6816,
      "Our</w>": 6817,
      "back</w>": 6818,
      "unseren</w>": 6819,
      "ily</w>": 6820,
      "based</w>": 6821,
      "ority</w>": 6822,
      "fern": 6823,
      "legal</w>": 6824,
      "tik": 6825,
      "art": 6826,
      "Los": 6827,
      "Wel": 6828,
      "each</w>": 6829,
      "Fir": 6830,
      "tens</w>": 6831,
      "oking</w>": 6832,
      "adop": 6833,
      "taken</w>": 6834,
      "Fun": 6835,
      "deu": 6836,
      "cum": 6837,
      "ura": 6838,
      "action</w>": 6839,
      "Wi": 6840,
      "access</w>": 6841,
      "defin": 6842,
      "kom": 6843,
      "nehmen</w>": 6844,
      "Land": 6845,
      "aler</w>": 6846,
      "illion</w>": 6847,
      "aro": 6848,
      "essen</w>": 6849,
      "Nat": 6850,
      "alth</w>": 6851,
      "Fur</w>": 6852,
      "sing</w>": 6853,
      "tieren</w>": 6854,
      "citiz": 6855,
      "aly": 6856,
      "bestimm": 6857,
      "ology</w>": 6858,
      "Wahr": 6859,
      "particular</w>": 6860,
      "offer</w>": 6861,
      "Committee</w>": 6862,
      "ences</w>": 6863,
      "hil": 6864,
      "partn": 6865,
      "produ": 6866,
      "visi": 6867,
      "wahrend</w>": 6868,
      "Techn": 6869,
      "colle": 6870,
      "Internet</w>": 6871,
      "Gre": 6872,
      "Proje": 6873,
      "Arbeits": 6874,
      "etwas</w>": 6875,
      "three</w>": 6876,
      "Und</w>": 6877,
      "ilities</w>": 6878,
      "Zimmer</w>": 6879,
      "Deut": 6880,
      "xi": 6881,
      "stance</w>": 6882,
      "lichkeiten</w>": 6883,
      "Stu": 6884,
      "problem</w>": 6885,
      "ban": 6886,
      "utz</w>": 6887,
      "get": 6888,
      "verk": 6889,
      "China</w>": 6890,
      "large</w>": 6891,
      "sel</w>": 6892,
      "feh": 6893,
      "search</w>": 6894,
      "democra": 6895,
      "setzung</w>": 6896,
      "Cent": 6897,
      "requ": 6898,
      "next</w>": 6899,
      "Lander</w>": 6900,
      "Art</w>": 6901,
      "flo": 6902,
      "ss</w>": 6903,
      "common</w>": 6904,
      "using</w>": 6905,
      "give</w>": 6906,
      "measures</w>": 6907,
      "areas</w>": 6908,
      "mor": 6909,
      "accoun": 6910,
      "ole</w>": 6911,
      "affen</w>": 6912,
      "Ur": 6913,
      "fal": 6914,
      "nun</w>": 6915,
      "every": 6916,
      "pas": 6917,
      "Beh": 6918,
      "stry</w>": 6919,
      "Aut": 6920,
      "present</w>": 6921,
      "rem</w>": 6922,
      "far</w>": 6923,
      "dire": 6924,
      "energy</w>": 6925,
      "ia</w>": 6926,
      "welt": 6927,
      "organis": 6928,
      "few</w>": 6929,
      "ak</w>": 6930,
      "Geschaf": 6931,
      "Unterstutz": 6932,
      "ches</w>": 6933,
      "punkt</w>": 6934,
      "inde": 6935,
      "ith</w>": 6936,
      "while</w>": 6937,
      "agreement</w>": 6938,
      "spezi": 6939,
      "staurant</w>": 6940,
      "Wie</w>": 6941,
      "insbesondere</w>": 6942,
      "dings</w>": 6943,
      "establi": 6944,
      "La": 6945,
      "deli": 6946,
      "cies</w>": 6947,
      "discus": 6948,
      "ße</w>": 6949,
      "unde</w>": 6950,
      "erfol": 6951,
      "gar</w>": 6952,
      "2010</w>": 6953,
      "provide</w>": 6954,
      "On</w>": 6955,
      "citizens</w>": 6956,
      "necessary</w>": 6957,
      "spre": 6958,
      "located</w>": 6959,
      "recei": 6960,
      "18": 6961,
      "lagen</w>": 6962,
      "lea": 6963,
      "tivi": 6964,
      "Hil": 6965,
      "zun": 6966,
      "iet</w>": 6967,
      "omen</w>": 6968,
      "ktionen</w>": 6969,
      "fore": 6970,
      "ports</w>": 6971,
      "seit</w>": 6972,
      "Kom": 6973,
      "verwen": 6974,
      "scher</w>": 6975,
      "Gar": 6976,
      "schein": 6977,
      "ordnung</w>": 6978,
      "erhalten</w>": 6979,
      "sibility</w>": 6980,
      "equi": 6981,
      "follo": 6982,
      "ensure</w>": 6983,
      "spro": 6984,
      "life</w>": 6985,
      "dge</w>": 6986,
      "dungen</w>": 6987,
      "gesetzt</w>": 6988,
      "2008</w>": 6989,
      "company</w>": 6990,
      "eting</w>": 6991,
      "aller</w>": 6992,
      "key</w>": 6993,
      "again</w>": 6994,
      "ask</w>": 6995,
      "Br": 6996,
      "ieren</w>": 6997,
      "zeu": 6998,
      "licht</w>": 6999,
      "Rechts": 7000,
      "systems</w>": 7001,
      "ls</w>": 7002,
      "ness</w>": 7003,
      "Demo": 7004,
      "fund": 7005,
      "Rahmen</w>": 7006,
      "Verfug": 7007,
      "tradi": 7008,
      "heits": 7009,
      "date</w>": 7010,
      "security</w>": 7011,
      "whe": 7012,
      "lungs": 7013,
      "increas": 7014,
      "luss</w>": 7015,
      "half</w>": 7016,
      "Parlaments</w>": 7017,
      "rum</w>": 7018,
      "sia</w>": 7019,
      "25</w>": 7020,
      "trage</w>": 7021,
      "ersten</w>": 7022,
      "Unterstutzung</w>": 7023,
      "wes": 7024,
      "writ": 7025,
      "allo": 7026,
      "bieten</w>": 7027,
      "ßt</w>": 7028,
      "los</w>": 7029,
      "ularly</w>": 7030,
      "klar": 7031,
      "hoch": 7032,
      "problems</w>": 7033,
      "voll": 7034,
      "further</w>": 7035,
      "fte</w>": 7036,
      "pop": 7037,
      "Win": 7038,
      "Bel": 7039,
      "digen</w>": 7040,
      "heiten</w>": 7041,
      "blei": 7042,
      "arch": 7043,
      "ieder": 7044,
      "opport": 7045,
      "shall</w>": 7046,
      "di</w>": 7047,
      "autom": 7048,
      "arbeiten</w>": 7049,
      "dec": 7050,
      "Auß": 7051,
      "prac": 7052,
      "War": 7053,
      "agt</w>": 7054,
      "sequ": 7055,
      "Zusammenarbeit</w>": 7056,
      "ules</w>": 7057,
      "alten</w>": 7058,
      "Haup": 7059,
      "Landern</w>": 7060,
      "net": 7061,
      "Menschen": 7062,
      "Amer": 7063,
      "du</w>": 7064,
      "moder": 7065,
      "fung</w>": 7066,
      "proce": 7067,
      "Teil</w>": 7068,
      "real</w>": 7069,
      "inf": 7070,
      "given</w>": 7071,
      "Namen</w>": 7072,
      "Wo": 7073,
      "days</w>": 7074,
      "competi": 7075,
      "ous": 7076,
      "Group</w>": 7077,
      "bringen</w>": 7078,
      "ja</w>": 7079,
      "Americ": 7080,
      "leich": 7081,
      "vote</w>": 7082,
      "sichti": 7083,
      "sam</w>": 7084,
      "til</w>": 7085,
      "setzen</w>": 7086,
      "beim</w>": 7087,
      "tice</w>": 7088,
      "plan": 7089,
      "Richtlin": 7090,
      "invol": 7091,
      "sure</w>": 7092,
      "ek</w>": 7093,
      "izi": 7094,
      "dly</w>": 7095,
      "Mr": 7096,
      "Vorschlag</w>": 7097,
      "Leb": 7098,
      "Dar": 7099,
      "consider": 7100,
      "yer</w>": 7101,
      "enten</w>": 7102,
      "why</w>": 7103,
      "objec": 7104,
      "lig": 7105,
      "Deb": 7106,
      "dest": 7107,
      "Fall</w>": 7108,
      "however</w>": 7109,
      "tiert</w>": 7110,
      "Anderungsan": 7111,
      "trol</w>": 7112,
      "Verk": 7113,
      "light</w>": 7114,
      "Fol": 7115,
      "besteht</w>": 7116,
      "Sk": 7117,
      "wards</w>": 7118,
      "Kar": 7119,
      "iert</w>": 7120,
      "soll</w>": 7121,
      "sitz": 7122,
      "zug</w>": 7123,
      "IN": 7124,
      "group</w>": 7125,
      "grund</w>": 7126,
      "law</w>": 7127,
      "cooperation</w>": 7128,
      "Burger</w>": 7129,
      "uter</w>": 7130,
      "materi": 7131,
      "stay</w>": 7132,
      "down</w>": 7133,
      "eck</w>": 7134,
      "did</w>": 7135,
      "gether</w>": 7136,
      "lin</w>": 7137,
      "zep": 7138,
      "To</w>": 7139,
      "lt</w>": 7140,
      "connec": 7141,
      "Uni": 7142,
      "ennen</w>": 7143,
      "vention</w>": 7144,
      "uren</w>": 7145,
      "On": 7146,
      "lossen</w>": 7147,
      "glau": 7148,
      "vil": 7149,
      "fru": 7150,
      "Eng": 7151,
      "tz</w>": 7152,
      "tungs": 7153,
      "Ob": 7154,
      "Gen": 7155,
      "ine": 7156,
      "Ben": 7157,
      "amend": 7158,
      "With</w>": 7159,
      "tun</w>": 7160,
      "Ziel</w>": 7161,
      "Stadt</w>": 7162,
      "System</w>": 7163,
      "große</w>": 7164,
      "gende</w>": 7165,
      "always</w>": 7166,
      "trag": 7167,
      "richti": 7168,
      "Flug": 7169,
      "blo": 7170,
      "Op": 7171,
      "United</w>": 7172,
      "gabe</w>": 7173,
      "int</w>": 7174,
      "assung</w>": 7175,
      "Organ": 7176,
      "needs</w>": 7177,
      "state</w>": 7178,
      "einfach</w>": 7179,
      "full</w>": 7180,
      "strateg": 7181,
      "seinen</w>": 7182,
      "working</w>": 7183,
      "appe": 7184,
      "happ": 7185,
      "legisl": 7186,
      "olle</w>": 7187,
      "They</w>": 7188,
      "sten": 7189,
      "drei</w>": 7190,
      "druck": 7191,
      "views</w>": 7192,
      "Zug": 7193,
      "24</w>": 7194,
      "denti": 7195,
      "initi": 7196,
      "compani": 7197,
      "pru": 7198,
      "dren</w>": 7199,
      "cultural</w>": 7200,
      "USA</w>": 7201,
      "Anwen": 7202,
      "bekann": 7203,
      "ina</w>": 7204,
      "Mu": 7205,
      "fuhrung</w>": 7206,
      "Fragen</w>": 7207,
      "Bei</w>": 7208,
      "wichtig</w>": 7209,
      "ep</w>": 7210,
      "einmal</w>": 7211,
      "kamp": 7212,
      "implement": 7213,
      "And</w>": 7214,
      "hope</w>": 7215,
      "production</w>": 7216,
      "ases</w>": 7217,
      "At</w>": 7218,
      "mehr": 7219,
      "Fam": 7220,
      "orts</w>": 7221,
      "Af": 7222,
      "Partn": 7223,
      "Problem</w>": 7224,
      "spiel</w>": 7225,
      "orig": 7226,
      "Plat": 7227,
      "reco": 7228,
      "letzten</w>": 7229,
      "km</w>": 7230,
      "ious</w>": 7231,
      "welche</w>": 7232,
      "Euro</w>": 7233,
      "main": 7234,
      "ations": 7235,
      "plac": 7236,
      "deren</w>": 7237,
      "Milli": 7238,
      "parti": 7239,
      "lang": 7240,
      "better</w>": 7241,
      "guar": 7242,
      "mus</w>": 7243,
      "tru": 7244,
      "atten": 7245,
      "Sec": 7246,
      "Seite</w>": 7247,
      "großen</w>": 7248,
      "House</w>": 7249,
      "esses</w>": 7250,
      "Gi": 7251,
      "darf</w>": 7252,
      "att": 7253,
      "dabei</w>": 7254,
      "100</w>": 7255,
      "grund": 7256,
      "met": 7257,
      "Entschei": 7258,
      "terstat": 7259,
      "industri": 7260,
      "politischen</w>": 7261,
      "ised</w>": 7262,
      "abo": 7263,
      "ught</w>": 7264,
      "13</w>": 7265,
      "Wirtschaf": 7266,
      "Community</w>": 7267,
      "rise</w>": 7268,
      "ird</w>": 7269,
      "porte": 7270,
      "gaben</w>": 7271,
      "ettbewer": 7272,
      "ference</w>": 7273,
      "imp": 7274,
      "times</w>": 7275,
      "streng": 7276,
      "them": 7277,
      "sever": 7278,
      "gefuhrt</w>": 7279,
      "around</w>": 7280,
      "esse</w>": 7281,
      "ER": 7282,
      "Tex": 7283,
      "power</w>": 7284,
      "Kollegen</w>": 7285,
      "yed</w>": 7286,
      "genheit</w>": 7287,
      "open</w>": 7288,
      "EU": 7289,
      "Daten</w>": 7290,
      "Prasiden": 7291,
      "2007</w>": 7292,
      "wil": 7293,
      "add": 7294,
      "protection</w>": 7295,
      "Recht</w>": 7296,
      "Kre": 7297,
      "lied</w>": 7298,
      "betri": 7299,
      "Woh": 7300,
      "teil</w>": 7301,
      "making</w>": 7302,
      "rechte</w>": 7303,
      "Ziel": 7304,
      "Wer": 7305,
      "ton</w>": 7306,
      "What</w>": 7307,
      "Bi": 7308,
      "od": 7309,
      "together</w>": 7310,
      "fession": 7311,
      "sing": 7312,
      "zeigt</w>": 7313,
      "He": 7314,
      "Mein": 7315,
      "pack": 7316,
      "ering</w>": 7317,
      "Bedeut": 7318,
      "Ange": 7319,
      "spar": 7320,
      "supp": 7321,
      "schaften</w>": 7322,
      "co</w>": 7323,
      "ingungen</w>": 7324,
      "uth</w>": 7325,
      "beh": 7326,
      "verb": 7327,
      "gkeit</w>": 7328,
      "Haushal": 7329,
      "mes</w>": 7330,
      "enjo": 7331,
      "ines</w>": 7332,
      "Fraktion</w>": 7333,
      "Gra": 7334,
      "ury</w>": 7335,
      "Fahr": 7336,
      "current</w>": 7337,
      "kommt</w>": 7338,
      "trit": 7339,
      "Forder": 7340,
      "occ": 7341,
      "mental</w>": 7342,
      "hangi": 7343,
      "stati": 7344,
      "stall": 7345,
      "sha": 7346,
      "unic": 7347,
      "ima": 7348,
      "terms</w>": 7349,
      "Auf</w>": 7350,
      "Ira": 7351,
      "tsch": 7352,
      "ro</w>": 7353,
      "Spiel": 7354,
      "ose</w>": 7355,
      "Verfugung</w>": 7356,
      "special</w>": 7357,
      "Was</w>": 7358,
      "inner": 7359,
      "lauf": 7360,
      "Mrs</w>": 7361,
      "CO": 7362,
      "weiter</w>": 7363,
      "extre": 7364,
      "fort</w>": 7365,
      "Ergeb": 7366,
      "einzi": 7367,
      "Sicherheit</w>": 7368,
      "Ausschus": 7369,
      "Er</w>": 7370,
      "ang": 7371,
      "deta": 7372,
      "typ": 7373,
      "trade</w>": 7374,
      "region": 7375,
      "hand</w>": 7376,
      "uation</w>": 7377,
      "Bedeutung</w>": 7378,
      "disp": 7379,
      "Viel": 7380,
      "icul": 7381,
      "whether</w>": 7382,
      "become</w>": 7383,
      "Im": 7384,
      "Gener": 7385,
      "Proz": 7386,
      "Eben": 7387,
      "use": 7388,
      "particularly</w>": 7389,
      "lab": 7390,
      "2000</w>": 7391,
      "zuruck": 7392,
      "Ihr</w>": 7393,
      "Rom": 7394,
      "going</w>": 7395,
      "enzen</w>": 7396,
      "Moglichkeit</w>": 7397,
      "centre</w>": 7398,
      "arm": 7399,
      "wed</w>": 7400,
      "orities</w>": 7401,
      "fah": 7402,
      "These</w>": 7403,
      "ain</w>": 7404,
      "40</w>": 7405,
      "difficul": 7406,
      "another</w>": 7407,
      "management</w>": 7408,
      "sources</w>": 7409,
      "ths</w>": 7410,
      "air</w>": 7411,
      "promo": 7412,
      "children</w>": 7413,
      "ously</w>": 7414,
      "range</w>": 7415,
      "tali": 7416,
      "basis</w>": 7417,
      "When</w>": 7418,
      "ign</w>": 7419,
      "wissen</w>": 7420,
      "schließlich</w>": 7421,
      "certain</w>": 7422,
      "igh": 7423,
      "commit": 7424,
      "Lie": 7425,
      "Auch</w>": 7426,
      "18</w>": 7427,
      "trac": 7428,
      "bel</w>": 7429,
      "bor": 7430,
      "Aber</w>": 7431,
      "Nach</w>": 7432,
      "ffe</w>": 7433,
      "politik</w>": 7434,
      "burg</w>": 7435,
      "14</w>": 7436,
      "handelt</w>": 7437,
      "expres": 7438,
      "result</w>": 7439,
      "notwen": 7440,
      "Staaten</w>": 7441,
      "eigenen</w>": 7442,
      "location</w>": 7443,
      "len": 7444,
      "look</w>": 7445,
      "kum": 7446,
      "gene</w>": 7447,
      "Frau": 7448,
      "ermog": 7449,
      "Ti": 7450,
      "rank": 7451,
      "serv": 7452,
      "rapporte": 7453,
      "second</w>": 7454,
      "Berichterstat": 7455,
      "ator</w>": 7456,
      "contri": 7457,
      "muß</w>": 7458,
      "Regierung</w>": 7459,
      "conditions</w>": 7460,
      "00": 7461,
      "region</w>": 7462,
      "ra</w>": 7463,
      "mul": 7464,
      "web": 7465,
      "doub": 7466,
      "page</w>": 7467,
      "une</w>": 7468,
      "iti": 7469,
      "erungs": 7470,
      "xim": 7471,
      "treten</w>": 7472,
      "alles</w>": 7473,
      "Als</w>": 7474,
      "issues</w>": 7475,
      "fordert</w>": 7476,
      "ellschaft</w>": 7477,
      "ales</w>": 7478,
      "ific": 7479,
      "entfern": 7480,
      "mil": 7481,
      "Rau": 7482,
      "Zent": 7483,
      "hr</w>": 7484,
      "pflich": 7485,
      "aller": 7486,
      "Energi": 7487,
      "rin": 7488,
      "Thema</w>": 7489,
      "ath</w>": 7490,
      "water</w>": 7491,
      "German</w>": 7492,
      "Finanz": 7493,
      "Ru": 7494,
      "Lis": 7495,
      "Ele": 7496,
      "dio</w>": 7497,
      "davon</w>": 7498,
      "Indu": 7499,
      "Service</w>": 7500,
      "turn</w>": 7501,
      "gress</w>": 7502,
      "table</w>": 7503,
      "espec": 7504,
      "bau": 7505,
      "dom</w>": 7506,
      "Probleme</w>": 7507,
      "weit</w>": 7508,
      "exten": 7509,
      "spru": 7510,
      "daruber</w>": 7511,
      "goti": 7512,
      "ichte</w>": 7513,
      "companies</w>": 7514,
      "wegen</w>": 7515,
      "role</w>": 7516,
      "control</w>": 7517,
      "coming</w>": 7518,
      "daher</w>": 7519,
      "entschei": 7520,
      "igkeit</w>": 7521,
      "mb": 7522,
      "sted</w>": 7523,
      "samen</w>": 7524,
      "Weise</w>": 7525,
      "cel": 7526,
      "kein</w>": 7527,
      "women</w>": 7528,
      "decision</w>": 7529,
      "close</w>": 7530,
      "Ant": 7531,
      "sischen</w>": 7532,
      "especi": 7533,
      "experience</w>": 7534,
      "AT": 7535,
      "Kunden</w>": 7536,
      "ross</w>": 7537,
      "soli": 7538,
      "Famili": 7539,
      "ta</w>": 7540,
      "Sy": 7541,
      "verfug": 7542,
      "mati": 7543,
      "fft</w>": 7544,
      "establish": 7545,
      "Politik</w>": 7546,
      "Dan": 7547,
      "sage</w>": 7548,
      "geord": 7549,
      "ues</w>": 7550,
      "sowohl</w>": 7551,
      "Schlus": 7552,
      "various</w>": 7553,
      "wide</w>": 7554,
      "ismus</w>": 7555,
      "guaran": 7556,
      "industry</w>": 7557,
      "beau": 7558,
      "Kommissar</w>": 7559,
      "AR": 7560,
      "programme</w>": 7561,
      "selves</w>": 7562,
      "weitere</w>": 7563,
      "fizi": 7564,
      "Haupt": 7565,
      "16</w>": 7566,
      "exist": 7567,
      "cl": 7568,
      "comes</w>": 7569,
      "whole</w>": 7570,
      "def": 7571,
      "blick</w>": 7572,
      "Inv": 7573,
      "Institu": 7574,
      "Dienst": 7575,
      "ordin": 7576,
      "sector</w>": 7577,
      "especially</w>": 7578,
      "befindet</w>": 7579,
      "hang</w>": 7580,
      "weisen</w>": 7581,
      "non</w>": 7582,
      "Artik": 7583,
      "health</w>": 7584,
      "Fru": 7585,
      "suchen</w>": 7586,
      "ror": 7587,
      "innov": 7588,
      "design": 7589,
      "called</w>": 7590,
      "ire</w>": 7591,
      "invest": 7592,
      "ok": 7593,
      "erreichen</w>": 7594,
      "modern</w>": 7595,
      "asi": 7596,
      "aty</w>": 7597,
      "Minist": 7598,
      "Ihrer</w>": 7599,
      "vis": 7600,
      "Car": 7601,
      "distri": 7602,
      "really</w>": 7603,
      "Ende</w>": 7604,
      "histor": 7605,
      "meiner</w>": 7606,
      "ziehen</w>": 7607,
      "besonders</w>": 7608,
      "work": 7609,
      "local</w>": 7610,
      "matter</w>": 7611,
      "liegen</w>": 7612,
      "entsprech": 7613,
      "As": 7614,
      "tour": 7615,
      "zed</w>": 7616,
      "versch": 7617,
      "utzt</w>": 7618,
      "done</w>": 7619,
      "word</w>": 7620,
      "rate</w>": 7621,
      "government</w>": 7622,
      "name</w>": 7623,
      "private</w>": 7624,
      "ei</w>": 7625,
      "account</w>": 7626,
      "chen": 7627,
      "Grupp": 7628,
      "AN": 7629,
      "ingt</w>": 7630,
      "ils</w>": 7631,
      "wirklich</w>": 7632,
      "wish</w>": 7633,
      "ihnen</w>": 7634,
      "leben</w>": 7635,
      "instru": 7636,
      "Zukunft</w>": 7637,
      "ellent</w>": 7638,
      "Bau": 7639,
      "specific</w>": 7640,
      "Comp": 7641,
      "ritte</w>": 7642,
      "Beispiel</w>": 7643,
      "ationale</w>": 7644,
      "Ruck": 7645,
      "budget</w>": 7646,
      "respect</w>": 7647,
      "wa</w>": 7648,
      "Indi": 7649,
      "eme</w>": 7650,
      "don</w>": 7651,
      "vision</w>": 7652,
      "staf": 7653,
      "fla": 7654,
      "Lin": 7655,
      "crip": 7656,
      "ared</w>": 7657,
      "naturlich</w>": 7658,
      "2006</w>": 7659,
      "Richtlinie</w>": 7660,
      "Mittel": 7661,
      "Bed": 7662,
      "tor": 7663,
      "third</w>": 7664,
      "unterstutzen</w>": 7665,
      "verschiedenen</w>": 7666,
      "digkeit</w>": 7667,
      "unser</w>": 7668,
      "docum": 7669,
      "neten</w>": 7670,
      "abhangi": 7671,
      "aktu": 7672,
      "innerhalb</w>": 7673,
      "genann": 7674,
      "ably</w>": 7675,
      "negoti": 7676,
      "Bal": 7677,
      "gern</w>": 7678,
      "cli": 7679,
      "create</w>": 7680,
      "kunf": 7681,
      "profession": 7682,
      "face</w>": 7683,
      "thers</w>": 7684,
      "gegenuber</w>": 7685,
      "research</w>": 7686,
      "isi": 7687,
      "uli": 7688,
      "gelegt</w>": 7689,
      "ubern": 7690,
      "Afri": 7691,
      "Kli": 7692,
      "finanzi": 7693,
      "ander</w>": 7694,
      "Germany</w>": 7695,
      "timmen</w>": 7696,
      "entfernt</w>": 7697,
      "vielen</w>": 7698,
      "Wettbewer": 7699,
      "fy</w>": 7700,
      "staff</w>": 7701,
      "feat": 7702,
      "ones</w>": 7703,
      "wun": 7704,
      "langu": 7705,
      "sprechen</w>": 7706,
      "reli": 7707,
      "incre": 7708,
      "Nutz": 7709,
      "At": 7710,
      "dessen</w>": 7711,
      "Rolle</w>": 7712,
      "60</w>": 7713,
      "opp": 7714,
      "lease</w>": 7715,
      "zer": 7716,
      "zwar</w>": 7717,
      "Forsch": 7718,
      "gewahr": 7719,
      "ty": 7720,
      "quali": 7721,
      "hervor": 7722,
      "asser": 7723,
      "term</w>": 7724,
      "reduc": 7725,
      "fordern</w>": 7726,
      "ik</w>": 7727,
      "konnten</w>": 7728,
      "start</w>": 7729,
      "ju": 7730,
      "merk": 7731,
      "major</w>": 7732,
      "global</w>": 7733,
      "tives</w>": 7734,
      "software</w>": 7735,
      "pose</w>": 7736,
      "single</w>": 7737,
      "gue</w>": 7738,
      "Weg</w>": 7739,
      "Nah": 7740,
      "eller</w>": 7741,
      "internationalen</w>": 7742,
      "employment</w>": 7743,
      "betra": 7744,
      "Frauen</w>": 7745,
      "standen</w>": 7746,
      "wth</w>": 7747,
      "million</w>": 7748,
      "198": 7749,
      "accep": 7750,
      "ands</w>": 7751,
      "Seiten</w>": 7752,
      "project</w>": 7753,
      "something</w>": 7754,
      "Kur": 7755,
      "off</w>": 7756,
      "Kra": 7757,
      "stei": 7758,
      "mochten</w>": 7759,
      "itself</w>": 7760,
      "ols</w>": 7761,
      "racht</w>": 7762,
      "intro": 7763,
      "automati": 7764,
      "era</w>": 7765,
      "Wil": 7766,
      "ency</w>": 7767,
      "eicht</w>": 7768,
      "several</w>": 7769,
      "cally</w>": 7770,
      "Industri": 7771,
      "away</w>": 7772,
      "Lebens": 7773,
      "ories</w>": 7774,
      "tal</w>": 7775,
      "gest</w>": 7776,
      "druck</w>": 7777,
      "umfas": 7778,
      "ttle</w>": 7779,
      "untern": 7780,
      "fel": 7781,
      "ording</w>": 7782,
      "schriften</w>": 7783,
      "found</w>": 7784,
      "gerich": 7785,
      "continue</w>": 7786,
      "fron": 7787,
      "break": 7788,
      "sprache</w>": 7789,
      "lish</w>": 7790,
      "rapporteur</w>": 7791,
      "advan": 7792,
      "ading</w>": 7793,
      "known</w>": 7794,
      "resolution</w>": 7795,
      "dort</w>": 7796,
      "via</w>": 7797,
      "ativen</w>": 7798,
      "Tag</w>": 7799,
      "alis": 7800,
      "regard</w>": 7801,
      "nich": 7802,
      "liches</w>": 7803,
      "suff": 7804,
      "europaische</w>": 7805,
      "pro</w>": 7806,
      "Ihren</w>": 7807,
      "utions</w>": 7808,
      "open": 7809,
      "least</w>": 7810,
      "onds</w>": 7811,
      "bot</w>": 7812,
      "jects</w>": 7813,
      "taking</w>": 7814,
      "stimmung</w>": 7815,
      "ected</w>": 7816,
      "gentle": 7817,
      "kul": 7818,
      "Je": 7819,
      "EN</w>": 7820,
      "version</w>": 7821,
      "grei": 7822,
      "crisis</w>": 7823,
      "wnlo": 7824,
      "pho": 7825,
      "Hotels</w>": 7826,
      "regul": 7827,
      "mework</w>": 7828,
      "list</w>": 7829,
      "general</w>": 7830,
      "town</w>": 7831,
      "direkt</w>": 7832,
      "Hei": 7833,
      "but": 7834,
      "top</w>": 7835,
      "ans": 7836,
      "ming</w>": 7837,
      "New</w>": 7838,
      "Itali": 7839,
      "vers": 7840,
      "dence</w>": 7841,
      "vement</w>": 7842,
      "often</w>": 7843,
      "following</w>": 7844,
      "TV</w>": 7845,
      "nei": 7846,
      "No</w>": 7847,
      "ession</w>": 7848,
      "Har": 7849,
      "lands</w>": 7850,
      "cing</w>": 7851,
      "any": 7852,
      "etc</w>": 7853,
      "let</w>": 7854,
      "hunder": 7855,
      "Regel": 7856,
      "atives</w>": 7857,
      "EUR</w>": 7858,
      "part": 7859,
      "lassi": 7860,
      "phi": 7861,
      "erungen</w>": 7862,
      "gentlemen</w>": 7863,
      "family</w>": 7864,
      "West": 7865,
      "erste</w>": 7866,
      "aufge": 7867,
      "asy</w>": 7868,
      "excellent</w>": 7869,
      "transport</w>": 7870,
      "Jan": 7871,
      "Schul": 7872,
      "zusammen": 7873,
      "ilt</w>": 7874,
      "gration</w>": 7875,
      "Komm": 7876,
      "ehmen": 7877,
      "lon": 7878,
      "Hal": 7879,
      "ear": 7880,
      "let": 7881,
      "hatten</w>": 7882,
      "achten</w>": 7883,
      "Ku": 7884,
      "enthalt</w>": 7885,
      "ot</w>": 7886,
      "zeitig</w>": 7887,
      "benef": 7888,
      "lang</w>": 7889,
      "gel</w>": 7890,
      "particip": 7891,
      "erst</w>": 7892,
      "stor": 7893,
      "He</w>": 7894,
      "itaten</w>": 7895,
      "EC": 7896,
      "rules</w>": 7897,
      "Gesund": 7898,
      "breit": 7899,
      "Artikel</w>": 7900,
      "stad": 7901,
      "once</w>": 7902,
      "food</w>": 7903,
      "bri": 7904,
      "Fil": 7905,
      "optim": 7906,
      "works</w>": 7907,
      "gend": 7908,
      "ever</w>": 7909,
      "einzel": 7910,
      "Software</w>": 7911,
      "personal</w>": 7912,
      "culture</w>": 7913,
      "Spe": 7914,
      "directive</w>": 7915,
      "sichtlich</w>": 7916,
      "Spra": 7917,
      "II</w>": 7918,
      "price</w>": 7919,
      "Kor": 7920,
      "onn": 7921,
      "metho": 7922,
      "ined</w>": 7923,
      "ender</w>": 7924,
      "represent": 7925,
      "mel": 7926,
      "milit": 7927,
      "sci": 7928,
      "tats": 7929,
      "ino</w>": 7930,
      "esti": 7931,
      "subject</w>": 7932,
      "cks</w>": 7933,
      "clos": 7934,
      "tron": 7935,
      "fl": 7936,
      "money</w>": 7937,
      "online</w>": 7938,
      "Emp": 7939,
      "uses</w>": 7940,
      "Programm</w>": 7941,
      "field</w>": 7942,
      "ktiv": 7943,
      "Pi": 7944,
      "Sel": 7945,
      "conclu": 7946,
      "Finan": 7947,
      "perform": 7948,
      "environment</w>": 7949,
      "Pol": 7950,
      "Deutsch": 7951,
      "Verbrau": 7952,
      "Hier</w>": 7953,
      "Alle</w>": 7954,
      "gang</w>": 7955,
      "vers</w>": 7956,
      "tics</w>": 7957,
      "Um</w>": 7958,
      "Ga": 7959,
      "absol": 7960,
      "activi": 7961,
      "bution</w>": 7962,
      "lig</w>": 7963,
      "ehm": 7964,
      "little</w>": 7965,
      "Jo": 7966,
      "Meinung</w>": 7967,
      "Mittel</w>": 7968,
      "ligen</w>": 7969,
      "welcome</w>": 7970,
      "frage</w>": 7971,
      "wieder": 7972,
      "recogn": 7973,
      "lies</w>": 7974,
      "ups</w>": 7975,
      "Char": 7976,
      "Jah": 7977,
      "tigung</w>": 7978,
      "verschieden": 7979,
      "17</w>": 7980,
      "World</w>": 7981,
      "Tag": 7982,
      "towards</w>": 7983,
      "fication</w>": 7984,
      "bl": 7985,
      "things</w>": 7986,
      "..</w>": 7987,
      "acht</w>": 7988,
      "wle": 7989,
      "ums</w>": 7990,
      "communic": 7991,
      "erforder": 7992,
      "dic": 7993,
      "tigt</w>": 7994,
      "politische</w>": 7995,
      "danken</w>": 7996,
      "assen</w>": 7997,
      "mach": 7998,
      "growth</w>": 7999,
      "ES": 8000,
      "oun": 8001,
      "Steu": 8002,
      "him</w>": 8003,
      "statt</w>": 8004,
      "wohn": 8005,
      "Abgeord": 8006,
      "Geschafts": 8007,
      "spr": 8008,
      "Situation</w>": 8009,
      "institutions</w>": 8010,
      "Fe": 8011,
      "UN": 8012,
      "until</w>": 8013,
      "product</w>": 8014,
      "forward</w>": 8015,
      "19</w>": 8016,
      "ater": 8017,
      "lot</w>": 8018,
      "IS": 8019,
      "Losung</w>": 8020,
      "EN": 8021,
      "Uhr</w>": 8022,
      "beiden</w>": 8023,
      "Ra": 8024,
      "Zusammenhang</w>": 8025,
      "bedeu": 8026,
      "effici": 8027,
      "technology</w>": 8028,
      "tures</w>": 8029,
      "hy": 8030,
      "Sep": 8031,
      "actu": 8032,
      "unserem</w>": 8033,
      "home</w>": 8034,
      "agen": 8035,
      "manu": 8036,
      "Isra": 8037,
      "Region</w>": 8038,
      "fugen</w>": 8039,
      "analy": 8040,
      "dom": 8041,
      "tains</w>": 8042,
      "tete</w>": 8043,
      "tex": 8044,
      "2005</w>": 8045,
      "einge": 8046,
      "ago</w>": 8047,
      "bz": 8048,
      "hau": 8049,
      "gleich</w>": 8050,
      "IC": 8051,
      "Madam</w>": 8052,
      "play</w>": 8053,
      "lear": 8054,
      "individual</w>": 8055,
      "Unser": 8056,
      "jen": 8057,
      "ods</w>": 8058,
      "za</w>": 8059,
      "agree</w>": 8060,
      "verbesser": 8061,
      "increase</w>": 8062,
      "customers</w>": 8063,
      "Treaty</w>": 8064,
      "short</w>": 8065,
      "Fisch": 8066,
      "21</w>": 8067,
      "design</w>": 8068,
      "house</w>": 8069,
      "teilung</w>": 8070,
      "ech": 8071,
      "Zwei": 8072,
      "Entschließ": 8073,
      "Ban": 8074,
      "erwar": 8075,
      "Hilfe</w>": 8076,
      "Verantwor": 8077,
      "standards</w>": 8078,
      "Euro": 8079,
      "aden</w>": 8080,
      "ritt</w>": 8081,
      "dows</w>": 8082,
      "ilitat</w>": 8083,
      "rather</w>": 8084,
      "mosp": 8085,
      "sting</w>": 8086,
      "opportunity</w>": 8087,
      "Han": 8088,
      "thank</w>": 8089,
      "tar": 8090,
      "weniger</w>": 8091,
      "gesagt</w>": 8092,
      "Organis": 8093,
      "value</w>": 8094,
      "ER</w>": 8095,
      "recht</w>": 8096,
      "enter": 8097,
      "Dieses</w>": 8098,
      "Dienstleist": 8099,
      "hof</w>": 8100,
      "bzw</w>": 8101,
      "baren</w>": 8102,
      "Sozi": 8103,
      "ples</w>": 8104,
      "sionen</w>": 8105,
      "activities</w>": 8106,
      "Mehr": 8107,
      "dent": 8108,
      "volk": 8109,
      "positive</w>": 8110,
      "kurz": 8111,
      "sidency</w>": 8112,
      "call</w>": 8113,
      "Neu": 8114,
      "Strateg": 8115,
      "bau</w>": 8116,
      "building</w>": 8117,
      "Port": 8118,
      "Demokrati": 8119,
      "quite</w>": 8120,
      "reicht</w>": 8121,
      "Disk": 8122,
      "equ": 8123,
      "17": 8124,
      "Produkte</w>": 8125,
      "voll</w>": 8126,
      "Ju": 8127,
      "aid</w>": 8128,
      "origin": 8129,
      "mittel</w>": 8130,
      "signific": 8131,
      "Sol": 8132,
      "mod": 8133,
      "ord</w>": 8134,
      "bed</w>": 8135,
      "Kontrol": 8136,
      "princip": 8137,
      "Dec": 8138,
      "pic": 8139,
      "provided</w>": 8140,
      "erzi": 8141,
      "Stru": 8142,
      "interest</w>": 8143,
      "Mat": 8144,
      "ktur</w>": 8145,
      "wort</w>": 8146,
      "Pla": 8147,
      "prev": 8148,
      "perf": 8149,
      "Nov": 8150,
      "Leben</w>": 8151,
      "resources</w>": 8152,
      "offentlichen</w>": 8153,
      "progra": 8154,
      "Zeit": 8155,
      "jeder</w>": 8156,
      "eno": 8157,
      "Natur": 8158,
      "identi": 8159,
      "Pl": 8160,
      "approach</w>": 8161,
      "Cor": 8162,
      "begru": 8163,
      "educ": 8164,
      "unterschie": 8165,
      "bs": 8166,
      "ends</w>": 8167,
      "forderungen</w>": 8168,
      "daran</w>": 8169,
      "ktor</w>": 8170,
      "Haus</w>": 8171,
      "State</w>": 8172,
      "tage</w>": 8173,
      "gilt</w>": 8174,
      "Kan": 8175,
      "period</w>": 8176,
      "Frie": 8177,
      "achlich</w>": 8178,
      "fang</w>": 8179,
      "dro": 8180,
      "Air": 8181,
      "zimmer</w>": 8182,
      "tember</w>": 8183,
      "yet</w>": 8184,
      "AS": 8185,
      "behalf</w>": 8186,
      "Initi": 8187,
      "having</w>": 8188,
      "sweise</w>": 8189,
      "10": 8190,
      "file</w>": 8191,
      "mom": 8192,
      "holi": 8193,
      "Deshalb</w>": 8194,
      "IT</w>": 8195,
      "gesehen</w>": 8196,
      "Members</w>": 8197,
      "Prasidentin</w>": 8198,
      "Rates</w>": 8199,
      "ona</w>": 8200,
      "2004</w>": 8201,
      "An</w>": 8202,
      "lub</w>": 8203,
      "ads</w>": 8204,
      "bank</w>": 8205,
      "fall</w>": 8206,
      "indem</w>": 8207,
      "fragen</w>": 8208,
      "Schutz</w>": 8209,
      "arti": 8210,
      "geschlossen</w>": 8211,
      "namlich</w>": 8212,
      "ian</w>": 8213,
      "avour</w>": 8214,
      "include</w>": 8215,
      "schaffen</w>": 8216,
      "September</w>": 8217,
      "Erfahr": 8218,
      "bitte</w>": 8219,
      "sogar</w>": 8220,
      "inion</w>": 8221,
      "ungs</w>": 8222,
      "members</w>": 8223,
      "Grund</w>": 8224,
      "gin": 8225,
      "genu": 8226,
      "Can": 8227,
      "viol": 8228,
      "proper": 8229,
      "gewi": 8230,
      "sty": 8231,
      "solution</w>": 8232,
      "riteri": 8233,
      "etwa</w>": 8234,
      "economy</w>": 8235,
      "might</w>": 8236,
      "forms</w>": 8237,
      "Pak": 8238,
      "require": 8239,
      "Umwelt": 8240,
      "ctions</w>": 8241,
      "Europas</w>": 8242,
      "bereich</w>": 8243,
      "cher": 8244,
      "Millionen</w>": 8245,
      "grenz": 8246,
      "ategi": 8247,
      "International</w>": 8248,
      "leisten</w>": 8249,
      "One</w>": 8250,
      "gemacht</w>": 8251,
      "ladies</w>": 8252,
      "among</w>": 8253,
      "ana</w>": 8254,
      "ucksichti": 8255,
      "due</w>": 8256,
      "elleicht</w>": 8257,
      "left</w>": 8258,
      "flexi": 8259,
      "Kinder</w>": 8260,
      "zeichn": 8261,
      "schi": 8262,
      "gebracht</w>": 8263,
      "hinaus</w>": 8264,
      "exper": 8265,
      "va</w>": 8266,
      "points</w>": 8267,
      "beauti": 8268,
      "Gleich": 8269,
      "hor": 8270,
      "confi": 8271,
      "reib": 8272,
      "proposals</w>": 8273,
      "dien": 8274,
      "Mal": 8275,
      "pool</w>": 8276,
      "recomm": 8277,
      "words</w>": 8278,
      "fortable</w>": 8279,
      "Gol": 8280,
      "bindung</w>": 8281,
      "force</w>": 8282,
      "amendments</w>": 8283,
      "ologie</w>": 8284,
      "framework</w>": 8285,
      "body</w>": 8286,
      "gui": 8287,
      "effective</w>": 8288,
      "ku": 8289,
      "content</w>": 8290,
      "After</w>": 8291,
      "pat": 8292,
      "eig": 8293,
      "richt</w>": 8294,
      "minutes</w>": 8295,
      "safety</w>": 8296,
      "reali": 8297,
      "poten": 8298,
      "appropri": 8299,
      "Pf": 8300,
      "Fruh": 8301,
      "alisierung</w>": 8302,
      "ot": 8303,
      "Gegen": 8304,
      "ural</w>": 8305,
      "above</w>": 8306,
      "costs</w>": 8307,
      "member</w>": 8308,
      "heb": 8309,
      "Kap": 8310,
      "tioned</w>": 8311,
      "easy</w>": 8312,
      "2003</w>": 8313,
      "others</w>": 8314,
      "durfen</w>": 8315,
      "bis": 8316,
      "regel": 8317,
      "Berlin</w>": 8318,
      "asser</w>": 8319,
      "satz": 8320,
      "Kamp": 8321,
      "transpar": 8322,
      "ground</w>": 8323,
      "ihn</w>": 8324,
      "Mor": 8325,
      "standig</w>": 8326,
      "Deutschland</w>": 8327,
      "Volk": 8328,
      "beginn": 8329,
      "Verhand": 8330,
      "Besu": 8331,
      "apart": 8332,
      "sites</w>": 8333,
      "adopted</w>": 8334,
      "who": 8335,
      "sieh": 8336,
      "ebenfalls</w>": 8337,
      "zeigen</w>": 8338,
      "chall": 8339,
      "Ther": 8340,
      "Instru": 8341,
      "Daten": 8342,
      "einigen</w>": 8343,
      "zustellen</w>": 8344,
      "ckt</w>": 8345,
      "Personen</w>": 8346,
      "clim": 8347,
      "schu": 8348,
      "reason</w>": 8349,
      "stoff": 8350,
      "ihm</w>": 8351,
      "teilen</w>": 8352,
      "show</w>": 8353,
      "Pe": 8354,
      "agri": 8355,
      "seinem</w>": 8356,
      "sab": 8357,
      "usammen</w>": 8358,
      "Dieser</w>": 8359,
      "zahl</w>": 8360,
      "progress</w>": 8361,
      "Tro": 8362,
      "Leist": 8363,
      "Janu": 8364,
      "unterschied": 8365,
      "ign": 8366,
      "deal</w>": 8367,
      "allow</w>": 8368,
      "prec": 8369,
      "Durch": 8370,
      "Unsere</w>": 8371,
      "Ebene</w>": 8372,
      "charac": 8373,
      "makes</w>": 8374,
      "exclu": 8375,
      "Forderung</w>": 8376,
      "wesent": 8377,
      "Dru": 8378,
      "Groß": 8379,
      "fallen</w>": 8380,
      "demokrati": 8381,
      "sse</w>": 8382,
      "Website</w>": 8383,
      "fundament": 8384,
      "ko</w>": 8385,
      "live</w>": 8386,
      "nu": 8387,
      "dungs": 8388,
      "edi": 8389,
      "opinion</w>": 8390,
      "tober</w>": 8391,
      "erweise</w>": 8392,
      "enjoy</w>": 8393,
      "coura": 8394,
      "station</w>": 8395,
      "Punkt</w>": 8396,
      "Zw": 8397,
      "website</w>": 8398,
      "Wis": 8399,
      "hon": 8400,
      "Bro": 8401,
      "Form</w>": 8402,
      "dy": 8403,
      "suppor": 8404,
      "Stre": 8405,
      "application</w>": 8406,
      "rela": 8407,
      "Jap": 8408,
      "AL": 8409,
      "erklar": 8410,
      "Far": 8411,
      "unterstutzt</w>": 8412,
      "legislation</w>": 8413,
      "gute</w>": 8414,
      "brauchen</w>": 8415,
      "amoun": 8416,
      "difficult</w>": 8417,
      "Sal": 8418,
      "Chi": 8419,
      "schafts": 8420,
      "plan</w>": 8421,
      "Universi": 8422,
      "teile</w>": 8423,
      "darin</w>": 8424,
      "fli": 8425,
      "arbeitet</w>": 8426,
      "projects</w>": 8427,
      "Drit": 8428,
      "je</w>": 8429,
      "sicher</w>": 8430,
      "complete</w>": 8431,
      "eth": 8432,
      "Aussprache</w>": 8433,
      "zeichnet</w>": 8434,
      "Schi": 8435,
      "Wach": 8436,
      "kar": 8437,
      "Tat": 8438,
      "eli": 8439,
      "credi": 8440,
      "Entwicklungs": 8441,
      "nete</w>": 8442,
      "Musi": 8443,
      "favour</w>": 8444,
      "unver": 8445,
      "kind</w>": 8446,
      "results</w>": 8447,
      "zeh": 8448,
      "policies</w>": 8449,
      "beru": 8450,
      "groups</w>": 8451,
      "Priv": 8452,
      "moun": 8453,
      "etzen</w>": 8454,
      "provides</w>": 8455,
      "Qualitat</w>": 8456,
      "halte</w>": 8457,
      "responsibility</w>": 8458,
      "multi": 8459,
      "staurants</w>": 8460,
      "Erfol": 8461,
      "Plan": 8462,
      "ises</w>": 8463,
      "val</w>": 8464,
      "dd": 8465,
      "Col": 8466,
      "road</w>": 8467,
      "AC": 8468,
      "ehmer</w>": 8469,
      "redu": 8470,
      "Wirtschafts": 8471,
      "attention</w>": 8472,
      "hoh": 8473,
      "pass": 8474,
      "ya</w>": 8475,
      "power": 8476,
      "timmt</w>": 8477,
      "gerade</w>": 8478,
      "Gast": 8479,
      "cted</w>": 8480,
      "Ac": 8481,
      "Bre": 8482,
      "concerned</w>": 8483,
      "Ha": 8484,
      "ano</w>": 8485,
      "Vil": 8486,
      "contact</w>": 8487,
      "kor": 8488,
      "mob": 8489,
      "regar": 8490,
      "Haushalts": 8491,
      "uring</w>": 8492,
      "tag": 8493,
      "nationalen</w>": 8494,
      "simply</w>": 8495,
      "DE</w>": 8496,
      "sea</w>": 8497,
      "sition</w>": 8498,
      "Benutz": 8499,
      "Ni": 8500,
      "glaube</w>": 8501,
      "gegeben</w>": 8502,
      "addi": 8503,
      "airs</w>": 8504,
      "bra": 8505,
      "chs</w>": 8506,
      "anzu": 8507,
      "allgem": 8508,
      "addition</w>": 8509,
      "2001</w>": 8510,
      "Rechte</w>": 8511,
      "komple": 8512,
      "dige</w>": 8513,
      "Restaurant</w>": 8514,
      "frie": 8515,
      "Jahrhunder": 8516,
      "beautiful</w>": 8517,
      "trav": 8518,
      "dure</w>": 8519,
      "ameri": 8520,
      "Gemeinschaft</w>": 8521,
      "she</w>": 8522,
      "mem": 8523,
      "cons": 8524,
      "tt</w>": 8525,
      "Sub": 8526,
      "certain": 8527,
      "una</w>": 8528,
      "gebung</w>": 8529,
      "Welt": 8530,
      "pped</w>": 8531,
      "questions</w>": 8532,
      "user</w>": 8533,
      "Da</w>": 8534,
      "free": 8535,
      "beispiel": 8536,
      "Beschaf": 8537,
      "ideal</w>": 8538,
      "Weiter": 8539,
      "importance</w>": 8540,
      "society</w>": 8541,
      "Zus": 8542,
      "derzeit</w>": 8543,
      "endly</w>": 8544,
      "administ": 8545,
      "bon</w>": 8546,
      "Vereinig": 8547,
      "Gel": 8548,
      "rup": 8549,
      "Wirtschaft</w>": 8550,
      "Poli": 8551,
      "introduc": 8552,
      "liber": 8553,
      "sollen</w>": 8554,
      "success": 8555,
      "Cas": 8556,
      "mitt": 8557,
      "ihrem</w>": 8558,
      "grat": 8559,
      "cu": 8560,
      "wirtschaft</w>": 8561,
      "zusatz": 8562,
      "genau</w>": 8563,
      "nichts</w>": 8564,
      "wichtig": 8565,
      "atte</w>": 8566,
      "jeden</w>": 8567,
      "meisten</w>": 8568,
      "anim": 8569,
      "markt</w>": 8570,
      "stab": 8571,
      "greater</w>": 8572,
      "yers</w>": 8573,
      "Jul": 8574,
      "help": 8575,
      "ce": 8576,
      "keinen</w>": 8577,
      "Bra": 8578,
      "22</w>": 8579,
      "termin": 8580,
      "siert</w>": 8581,
      "strategy</w>": 8582,
      "Abstimmung</w>": 8583,
      "alog</w>": 8584,
      "hu": 8585,
      "Ak": 8586,
      "pping</w>": 8587,
      "ath": 8588,
      "cir": 8589,
      "training</w>": 8590,
      "ong": 8591,
      "bare</w>": 8592,
      "op</w>": 8593,
      "directly</w>": 8594,
      "voted</w>": 8595,
      "flu": 8596,
      "sache</w>": 8597,
      "denken</w>": 8598,
      "freund": 8599,
      "cover": 8600,
      "Sam": 8601,
      "gehort</w>": 8602,
      "sei</w>": 8603,
      "environmental</w>": 8604,
      "hen": 8605,
      "cal": 8606,
      "La</w>": 8607,
      "jah": 8608,
      "jus": 8609,
      "bus</w>": 8610,
      "zusammen</w>": 8611,
      "weiterhin</w>": 8612,
      "step</w>": 8613,
      "nutzen</w>": 8614,
      "zahlen</w>": 8615,
      "betrifft</w>": 8616,
      "mechan": 8617,
      "RO": 8618,
      "klar</w>": 8619,
      "80</w>": 8620,
      "kenn": 8621,
      "promis": 8622,
      "ner": 8623,
      "Fortsch": 8624,
      "verstand": 8625,
      "interest": 8626,
      "ants</w>": 8627,
      "Ort</w>": 8628,
      "gespro": 8629,
      "along</w>": 8630,
      "achst</w>": 8631,
      "principle</w>": 8632,
      "wirtschaftlichen</w>": 8633,
      "Kl": 8634,
      "Pa": 8635,
      "cht": 8636,
      "tritt</w>": 8637,
      "Schlussel": 8638,
      "tnis</w>": 8639,
      "natural</w>": 8640,
      "Com": 8641,
      "Dokum": 8642,
      "cs</w>": 8643,
      "Bem": 8644,
      "wledge</w>": 8645,
      "immt</w>": 8646,
      "Hoch": 8647,
      "aut</w>": 8648,
      "Bezug</w>": 8649,
      "looking</w>": 8650,
      "500</w>": 8651,
      "welt</w>": 8652,
      "manufac": 8653,
      "cat": 8654,
      "Tour": 8655,
      "sug": 8656,
      "Pun": 8657,
      "heart</w>": 8658,
      "sem": 8659,
      "responsible</w>": 8660,
      "required</w>": 8661,
      "lange</w>": 8662,
      "changes</w>": 8663,
      "anstal": 8664,
      "herr": 8665,
      "century</w>": 8666,
      "extrem": 8667,
      "Burger": 8668,
      "graph": 8669,
      "beno": 8670,
      "nel</w>": 8671,
      "Den": 8672,
      "unities</w>": 8673,
      "bedeutet</w>": 8674,
      "2002</w>": 8675,
      "setzt</w>": 8676,
      "wichtige</w>": 8677,
      "Wal": 8678,
      "Gesellschaft</w>": 8679,
      "fern</w>": 8680,
      "recent</w>": 8681,
      "run</w>": 8682,
      "Bezieh": 8683,
      "standing</w>": 8684,
      "Direc": 8685,
      "197": 8686,
      "kosten": 8687,
      "grun": 8688,
      "Kosten</w>": 8689,
      "fuh": 8690,
      "meeting</w>": 8691,
      "solche</w>": 8692,
      "Govern": 8693,
      "ail</w>": 8694,
      "scho": 8695,
      "Hol": 8696,
      "authorities</w>": 8697,
      "clearly</w>": 8698,
      "aufgrund</w>": 8699,
      "structure</w>": 8700,
      "care</w>": 8701,
      "hohen</w>": 8702,
      "famili": 8703,
      "ned</w>": 8704,
      "four</w>": 8705,
      "easi": 8706,
      "pun": 8707,
      "breakfast</w>": 8708,
      "deshalb</w>": 8709,
      "ological</w>": 8710,
      "susta": 8711,
      "Windows</w>": 8712,
      "El": 8713,
      "struction</w>": 8714,
      "swi": 8715,
      "pages</w>": 8716,
      "besser</w>": 8717,
      "els": 8718,
      "steu": 8719,
      "schwi": 8720,
      "erw": 8721,
      "November</w>": 8722,
      "technical</w>": 8723,
      "Zugang</w>": 8724,
      "rest</w>": 8725,
      "civi": 8726,
      "refer": 8727,
      "Aus</w>": 8728,
      "stens</w>": 8729,
      "deutlich</w>": 8730,
      "mail</w>": 8731,
      "remo": 8732,
      "pol": 8733,
      "temp": 8734,
      "send</w>": 8735,
      "Nahe</w>": 8736,
      "ktur": 8737,
      "car</w>": 8738,
      "besten</w>": 8739,
      "200</w>": 8740,
      "Sor": 8741,
      "don": 8742,
      "Wachst": 8743,
      "challen": 8744,
      "anks</w>": 8745,
      "stadt</w>": 8746,
      "Haf": 8747,
      "23</w>": 8748,
      "Ide": 8749,
      "orden</w>": 8750,
      "Fern": 8751,
      "lines</w>": 8752,
      "teilt</w>": 8753,
      "address</w>": 8754,
      "kauf": 8755,
      "san": 8756,
      "achieve</w>": 8757,
      "schnell</w>": 8758,
      "mind</w>": 8759,
      "haltung</w>": 8760,
      "risk</w>": 8761,
      "akzep": 8762,
      "senden</w>": 8763,
      "ette</w>": 8764,
      "Bevolk": 8765,
      "betre": 8766,
      "Sin": 8767,
      "mitted</w>": 8768,
      "nature</w>": 8769,
      "own": 8770,
      "Zi": 8771,
      "rely</w>": 8772,
      "dau": 8773,
      "gie</w>": 8774,
      "install": 8775,
      "Feh": 8776,
      "person</w>": 8777,
      "staat": 8778,
      "Kolleg": 8779,
      "dents</w>": 8780,
      "Strategie</w>": 8781,
      "Apri": 8782,
      "komp": 8783,
      "Gesetz": 8784,
      "wert</w>": 8785,
      "pan": 8786,
      "Dam": 8787,
      "active</w>": 8788,
      "Fest": 8789,
      "ticle</w>": 8790,
      "Arbeitsp": 8791,
      "Markt</w>": 8792,
      "fish": 8793,
      "longer</w>": 8794,
      "feel</w>": 8795,
      "serious</w>": 8796,
      "essential</w>": 8797,
      "erfolgre": 8798,
      "months</w>": 8799,
      "ada</w>": 8800,
      "urt</w>": 8801,
      "Rat": 8802,
      "past</w>": 8803,
      "Von</w>": 8804,
      "gran": 8805,
      "Menschenrechte</w>": 8806,
      "Richtung</w>": 8807,
      "Verbesser": 8808,
      "standard</w>": 8809,
      "losen</w>": 8810,
      "crimin": 8811,
      "nachsten</w>": 8812,
      "sport</w>": 8813,
      "history</w>": 8814,
      "fris": 8815,
      "space</w>": 8816,
      "solutions</w>": 8817,
      "consu": 8818,
      "conf": 8819,
      "teten</w>": 8820,
      "einander</w>": 8821,
      "bekannt</w>": 8822,
      "enough</w>": 8823,
      "reach": 8824,
      "eute</w>": 8825,
      "facilities</w>": 8826,
      "spi": 8827,
      "bring</w>": 8828,
      "proposed</w>": 8829,
      "aria</w>": 8830,
      "zuglich</w>": 8831,
      "verein": 8832,
      "Sti": 8833,
      "Muse": 8834,
      "either</w>": 8835,
      "cost</w>": 8836,
      "Russia</w>": 8837,
      "tively</w>": 8838,
      "ics</w>": 8839,
      "cke</w>": 8840,
      "Si": 8841,
      "Ansicht</w>": 8842,
      "Pat": 8843,
      "Sho": 8844,
      "developed</w>": 8845,
      "near</w>": 8846,
      "carri": 8847,
      "type</w>": 8848,
      "Kunst": 8849,
      "events</w>": 8850,
      "needed</w>": 8851,
      "ager</w>": 8852,
      "Umsetzung</w>": 8853,
      "mente</w>": 8854,
      "ingly</w>": 8855,
      "currently</w>": 8856,
      "ames</w>": 8857,
      "related</w>": 8858,
      "April</w>": 8859,
      "maß</w>": 8860,
      "interests</w>": 8861,
      "Mil": 8862,
      "neg": 8863,
      "internal</w>": 8864,
      "ade": 8865,
      "vorgesch": 8866,
      "ferenz</w>": 8867,
      "direct</w>": 8868,
      "tivity</w>": 8869,
      "limit": 8870,
      "night</w>": 8871,
      "Du": 8872,
      "vo</w>": 8873,
      "guests</w>": 8874,
      "upon</w>": 8875,
      "27</w>": 8876,
      "regions</w>": 8877,
      "requirements</w>": 8878,
      "allerdings</w>": 8879,
      "restaurant</w>": 8880,
      "parties</w>": 8881,
      "berg</w>": 8882,
      "visit</w>": 8883,
      "Freih": 8884,
      "language</w>": 8885,
      "Mitarbei": 8886,
      "speak": 8887,
      "boo": 8888,
      "avi": 8889,
      "zentr": 8890,
      "central</w>": 8891,
      "scht</w>": 8892,
      "Ziele</w>": 8893,
      "seits</w>": 8894,
      "vices</w>": 8895,
      "raum</w>": 8896,
      "yc": 8897,
      "erlau": 8898,
      "weder</w>": 8899,
      "Vertrag</w>": 8900,
      "beispielsweise</w>": 8901,
      "dap": 8902,
      "ition</w>": 8903,
      "tra</w>": 8904,
      "reiben</w>": 8905,
      "cr": 8906,
      "integr": 8907,
      "San": 8908,
      "Verfahren</w>": 8909,
      "combin": 8910,
      "mbH</w>": 8911,
      "themselves</w>": 8912,
      "peace</w>": 8913,
      "organiz": 8914,
      "young</w>": 8915,
      "markets</w>": 8916,
      "wirkungen</w>": 8917,
      "Bedingungen</w>": 8918,
      "involved</w>": 8919,
      "affung</w>": 8920,
      "posed</w>": 8921,
      "Ei": 8922,
      "Please</w>": 8923,
      "From</w>": 8924,
      "tag</w>": 8925,
      "OR": 8926,
      "Selb": 8927,
      "regulation</w>": 8928,
      "16": 8929,
      "separ": 8930,
      "ungspro": 8931,
      "Verantwortung</w>": 8932,
      "never</w>": 8933,
      "categ": 8934,
      "democracy</w>": 8935,
      "Anwendung</w>": 8936,
      "werde</w>": 8937,
      "scheint</w>": 8938,
      "ahn</w>": 8939,
      "Komp": 8940,
      "team</w>": 8941,
      "zung</w>": 8942,
      "bleiben</w>": 8943,
      "seen</w>": 8944,
      "vious</w>": 8945,
      "Fi": 8946,
      "round": 8947,
      "igung</w>": 8948,
      "hoffe</w>": 8949,
      "Bl": 8950,
      "comfortable</w>": 8951,
      "Dank</w>": 8952,
      "human": 8953,
      "implementation</w>": 8954,
      "press</w>": 8955,
      "gemeinsamen</w>": 8956,
      "competition</w>": 8957,
      "richtung</w>": 8958,
      "cla": 8959,
      "Klima": 8960,
      "Inte": 8961,
      "extremely</w>": 8962,
      "freedom</w>": 8963,
      "cop": 8964,
      "funktion": 8965,
      "efforts</w>": 8966,
      "test</w>": 8967,
      "ow</w>": 8968,
      "Tri": 8969,
      "gestimmt</w>": 8970,
      "tischen</w>": 8971,
      "jewei": 8972,
      "notwendig</w>": 8973,
      "Vide": 8974,
      "vielleicht</w>": 8975,
      "caus": 8976,
      "adi": 8977,
      "arian</w>": 8978,
      "leb": 8979,
      "foc": 8980,
      "Demokratie</w>": 8981,
      "IT": 8982,
      "Wh": 8983,
      "iled</w>": 8984,
      "LA": 8985,
      "set": 8986,
      "Version</w>": 8987,
      "sozialen</w>": 8988,
      "strong</w>": 8989,
      "held</w>": 8990,
      "total</w>": 8991,
      "cases</w>": 8992,
      "network</w>": 8993,
      "Aspe": 8994,
      "offen": 8995,
      "Grundlage</w>": 8996,
      "please</w>": 8997,
      "grupp": 8998,
      "event</w>": 8999,
      "gere": 9000,
      "Erweiter": 9001,
      "Vorschlage</w>": 9002,
      "mal": 9003,
      "serve</w>": 9004,
      "ierung</w>": 9005,
      "cam": 9006,
      "gesprochen</w>": 9007,
      "ww": 9008,
      "GmbH</w>": 9009,
      "monit": 9010,
      "ered</w>": 9011,
      "kleinen</w>": 9012,
      "Interesse</w>": 9013,
      "Am</w>": 9014,
      "Sozial": 9015,
      "Verwal": 9016,
      "verwendet</w>": 9017,
      "tory</w>": 9018,
      "Reihe</w>": 9019,
      "Geschichte</w>": 9020,
      "haup": 9021,
      "Gebiet</w>": 9022,
      "atory</w>": 9023,
      "icro": 9024,
      "demon": 9025,
      "kol": 9026,
      "erful": 9027,
      "keep</w>": 9028,
      "atis": 9029,
      "ables</w>": 9030,
      "berucksichti": 9031,
      "arri": 9032,
      "aged</w>": 9033,
      "row</w>": 9034,
      "relev": 9035,
      "friendly</w>": 9036,
      "www</w>": 9037,
      "igkeiten</w>": 9038,
      "Man</w>": 9039,
      "modi": 9040,
      "democratic</w>": 9041,
      "zogen</w>": 9042,
      "France</w>": 9043,
      "Teil": 9044,
      "Durch</w>": 9045,
      "Fur": 9046,
      "maxim": 9047,
      "All": 9048,
      "rimin": 9049,
      "Angele": 9050,
      "Mob": 9051,
      "platz</w>": 9052,
      "erreicht</w>": 9053,
      "isse</w>": 9054,
      "prep": 9055,
      "Ihrem</w>": 9056,
      "Moglichkeiten</w>": 9057,
      "regional</w>": 9058,
      "Herren</w>": 9059,
      "Arch": 9060,
      "rench</w>": 9061,
      "AD": 9062,
      "innen": 9063,
      "depen": 9064,
      "14": 9065,
      "Sicherheits": 9066,
      "inen</w>": 9067,
      "harmon": 9068,
      "agi": 9069,
      "appropriate</w>": 9070,
      "cen</w>": 9071,
      "ee</w>": 9072,
      "wnload</w>": 9073,
      "aren</w>": 9074,
      "material</w>": 9075,
      "1999</w>": 9076,
      "Publi": 9077,
      "Daher</w>": 9078,
      "Mod": 9079,
      "gets</w>": 9080,
      "music</w>": 9081,
      "vic": 9082,
      "actions</w>": 9083,
      "eries</w>": 9084,
      "hard</w>": 9085,
      "big</w>": 9086,
      "Kenn": 9087,
      "AG</w>": 9088,
      "schnit": 9089,
      "Investi": 9090,
      "vide": 9091,
      "negotiations</w>": 9092,
      "pay</w>": 9093,
      "verfol": 9094,
      "avo": 9095,
      "center</w>": 9096,
      "seh": 9097,
      "true</w>": 9098,
      "bark": 9099,
      "Aug": 9100,
      "sucht</w>": 9101,
      "Institutionen</w>": 9102,
      "indepen": 9103,
      "situated</w>": 9104,
      "tem</w>": 9105,
      "Debatte</w>": 9106,
      "gesetz": 9107,
      "istan</w>": 9108,
      "book</w>": 9109,
      "Erklar": 9110,
      "consider</w>": 9111,
      "eist": 9112,
      "unique</w>": 9113,
      "turel": 9114,
      "created</w>": 9115,
      "sian</w>": 9116,
      "tained</w>": 9117,
      "education</w>": 9118,
      "altern": 9119,
      "stly</w>": 9120,
      "sident": 9121,
      "tan": 9122,
      "oft</w>": 9123,
      "foreign</w>": 9124,
      "everything</w>": 9125,
      "prices</w>": 9126,
      "heu": 9127,
      "ring": 9128,
      "luck": 9129,
      "rist": 9130,
      "auszu": 9131,
      "reiche</w>": 9132,
      "dar</w>": 9133,
      "vier</w>": 9134,
      "tos</w>": 9135,
      "Aff": 9136,
      "Lon": 9137,
      "Stell": 9138,
      "developing</w>": 9139,
      "RE": 9140,
      "beach</w>": 9141,
      "share</w>": 9142,
      "Ol": 9143,
      "request</w>": 9144,
      "Office</w>": 9145,
      "fundamental</w>": 9146,
      "board</w>": 9147,
      "unsti": 9148,
      "Wieder": 9149,
      "Netz": 9150,
      "inuten</w>": 9151,
      "ators</w>": 9152,
      "refle": 9153,
      "states</w>": 9154,
      "isches</w>": 9155,
      "alogue</w>": 9156,
      "Bank</w>": 9157,
      "thus</w>": 9158,
      "rema": 9159,
      "wenig</w>": 9160,
      "bereit</w>": 9161,
      "rates</w>": 9162,
      "che": 9163,
      "stehenden</w>": 9164,
      "according</w>": 9165,
      "conven": 9166,
      "ieten</w>": 9167,
      "schluss</w>": 9168,
      "tweit</w>": 9169,
      "found": 9170,
      "almost</w>": 9171,
      "funds</w>": 9172,
      "entwickelt</w>": 9173,
      "American</w>": 9174,
      "climate</w>": 9175,
      "stellungen</w>": 9176,
      "Doch</w>": 9177,
      "French</w>": 9178,
      "sichts</w>": 9179,
      "elli": 9180,
      "minim": 9181,
      "Ap": 9182,
      "lose</w>": 9183,
      "ek": 9184,
      "Preis</w>": 9185,
      "reform</w>": 9186,
      "senschaf": 9187,
      "improve</w>": 9188,
      "immedi": 9189,
      "Rechn": 9190,
      "verschiedene</w>": 9191,
      "Fuhr": 9192,
      "Nich": 9193,
      "hout</w>": 9194,
      "Hinblick</w>": 9195,
      "accomm": 9196,
      "aper</w>": 9197,
      "verantwor": 9198,
      "parts</w>": 9199,
      "Kir": 9200,
      "spielen</w>": 9201,
      "Presidency</w>": 9202,
      "treat": 9203,
      "effect</w>": 9204,
      "success</w>": 9205,
      "Dienstleistungen</w>": 9206,
      "drin": 9207,
      "living</w>": 9208,
      "card</w>": 9209,
      "meet</w>": 9210,
      "anien</w>": 9211,
      "mission</w>": 9212,
      "correc": 9213,
      "lik": 9214,
      "erseits</w>": 9215,
      "pment</w>": 9216,
      "unik": 9217,
      "Außer": 9218,
      "additional</w>": 9219,
      "ughout</w>": 9220,
      "designed</w>": 9221,
      "graphi": 9222,
      "konkre": 9223,
      "famous</w>": 9224,
      "befinden</w>": 9225,
      "wus": 9226,
      "arbeitung</w>": 9227,
      "Arbeitsplat": 9228,
      "aim": 9229,
      "Paris</w>": 9230,
      "ultur</w>": 9231,
      "included</w>": 9232,
      "Heraus": 9233,
      "zone</w>": 9234,
      "Auswirkungen</w>": 9235,
      "verfugt</w>": 9236,
      "Israel</w>": 9237,
      "actually</w>": 9238,
      "TO</w>": 9239,
      "Diskus": 9240,
      "gemeinsame</w>": 9241,
      "statt": 9242,
      "San</w>": 9243,
      "Park</w>": 9244,
      "later</w>": 9245,
      "mitteln</w>": 9246,
      "soon</w>": 9247,
      "tax</w>": 9248,
      "15": 9249,
      "spolitik</w>": 9250,
      "Fischer": 9251,
      "unternehmen</w>": 9252,
      "Abkommen</w>": 9253,
      "Met": 9254,
      "ermoglicht</w>": 9255,
      "nt</w>": 9256,
      "starken</w>": 9257,
      "Minuten</w>": 9258,
      "kontrol": 9259,
      "großer</w>": 9260,
      "Berichterstatter</w>": 9261,
      "Damen</w>": 9262,
      "Dien": 9263,
      "St</w>": 9264,
      "idea</w>": 9265,
      "haps</w>": 9266,
      "Tele": 9267,
      "70</w>": 9268,
      "back": 9269,
      "hier": 9270,
      "einzu": 9271,
      "CD</w>": 9272,
      "IP</w>": 9273,
      "effizi": 9274,
      "key": 9275,
      "Liber": 9276,
      "encoura": 9277,
      "lead</w>": 9278,
      "links</w>": 9279,
      "five</w>": 9280,
      "ening</w>": 9281,
      "reich</w>": 9282,
      "auen</w>": 9283,
      "elling</w>": 9284,
      "ruhi": 9285,
      "exam": 9286,
      "Konta": 9287,
      "Vertre": 9288,
      "gewahl": 9289,
      "Ka": 9290,
      "gl": 9291,
      "gleichen</w>": 9292,
      "Regionen</w>": 9293,
      "workers</w>": 9294,
      "understand</w>": 9295,
      "comb": 9296,
      "Tatsache</w>": 9297,
      "ambi": 9298,
      "jenigen</w>": 9299,
      "acy</w>": 9300,
      "28</w>": 9301,
      "Bar</w>": 9302,
      "camp": 9303,
      "schrif": 9304,
      "capital</w>": 9305,
      "helfen</w>": 9306,
      "Stat": 9307,
      "werk</w>": 9308,
      "alls</w>": 9309,
      "genie": 9310,
      "schutz": 9311,
      "fortun": 9312,
      "cover</w>": 9313,
      "enter</w>": 9314,
      "Mis": 9315,
      "receive</w>": 9316,
      "associ": 9317,
      "Mas": 9318,
      "mentioned</w>": 9319,
      "weltweit</w>": 9320,
      "amerikan": 9321,
      "Wun": 9322,
      "accept</w>": 9323,
      "leading</w>": 9324,
      "Wirk": 9325,
      "Zu</w>": 9326,
      "Verhandlungen</w>": 9327,
      "zul": 9328,
      "ganzen</w>": 9329,
      "sierung</w>": 9330,
      "abled</w>": 9331,
      "obs</w>": 9332,
      "verfahren</w>": 9333,
      "tiv</w>": 9334,
      "vorschla": 9335,
      "sustain": 9336,
      "stattet</w>": 9337,
      "erforderlich</w>": 9338,
      "terror": 9339,
      "Programme</w>": 9340,
      "initiative</w>": 9341,
      "Mitglieder</w>": 9342,
      "fair</w>": 9343,
      "lasst</w>": 9344,
      "tions": 9345,
      "ched</w>": 9346,
      "bildung</w>": 9347,
      "takes</w>": 9348,
      "outside</w>": 9349,
      "check</w>": 9350,
      "Del": 9351,
      "alist</w>": 9352,
      "schul": 9353,
      "gum": 9354,
      "fran": 9355,
      "commer": 9356,
      "reit": 9357,
      "ually</w>": 9358,
      "wunder": 9359,
      "Proto": 9360,
      "Schla": 9361,
      "ziert</w>": 9362,
      "procedure</w>": 9363,
      "ebenso</w>": 9364,
      "gangen</w>": 9365,
      "Russ": 9366,
      "gesamten</w>": 9367,
      "smus</w>": 9368,
      "ski</w>": 9369,
      "ind": 9370,
      "lander</w>": 9371,
      "program</w>": 9372,
      "Finanzi": 9373,
      "built</w>": 9374,
      "IM": 9375,
      "week</w>": 9376,
      "knowledge</w>": 9377,
      "users</w>": 9378,
      "care": 9379,
      "na</w>": 9380,
      "prise</w>": 9381,
      "andert</w>": 9382,
      "dist": 9383,
      "tely</w>": 9384,
      "reach</w>": 9385,
      "schließen</w>": 9386,
      "majority</w>": 9387,
      "Flu": 9388,
      "Austri": 9389,
      "eigent": 9390,
      "ubri": 9391,
      "control": 9392,
      "ights</w>": 9393,
      "early</w>": 9394,
      "investment</w>": 9395,
      "darum</w>": 9396,
      "amount</w>": 9397,
      "front</w>": 9398,
      "stead</w>": 9399,
      "einzelnen</w>": 9400,
      "dor": 9401,
      "features</w>": 9402,
      "wahlen</w>": 9403,
      "served</w>": 9404,
      "bezieh": 9405,
      "Jun": 9406,
      "schutz</w>": 9407,
      "Gruppe</w>": 9408,
      "Prin": 9409,
      "gul": 9410,
      "strategi": 9411,
      "gestal": 9412,
      "13": 9413,
      "tax": 9414,
      "our": 9415,
      "denke</w>": 9416,
      "tual</w>": 9417,
      "met</w>": 9418,
      "took</w>": 9419,
      "angem": 9420,
      "doing</w>": 9421,
      "surround": 9422,
      "communication</w>": 9423,
      "Mad": 9424,
      "tin": 9425,
      "cking</w>": 9426,
      "source</w>": 9427,
      "empha": 9428,
      "files</w>": 9429,
      "hours</w>": 9430,
      "fahr</w>": 9431,
      "eien</w>": 9432,
      "Bit": 9433,
      "IS</w>": 9434,
      "Kat": 9435,
      "Schritt</w>": 9436,
      "Zentrum</w>": 9437,
      "landern</w>": 9438,
      "super": 9439,
      "iting</w>": 9440,
      "ama</w>": 9441,
      "verur": 9442,
      "weiteren</w>": 9443,
      "Verkehr": 9444,
      "UN</w>": 9445,
      "Fer": 9446,
      "eption</w>": 9447,
      "park</w>": 9448,
      "Kolleginnen</w>": 9449,
      "throughout</w>": 9450,
      "satis": 9451,
      "ersch": 9452,
      "elegan": 9453,
      "Entscheidung</w>": 9454,
      "eless</w>": 9455,
      "customer</w>": 9456,
      "party</w>": 9457,
      "Außerdem</w>": 9458,
      "Mail</w>": 9459,
      "religi": 9460,
      "Bus": 9461,
      "langen</w>": 9462,
      "guarantee</w>": 9463,
      "internationale</w>": 9464,
      "nation": 9465,
      "26</w>": 9466,
      "consequ": 9467,
      "90</w>": 9468,
      "across</w>": 9469,
      "Außen": 9470,
      "extern": 9471,
      "media</w>": 9472,
      "ES</w>": 9473,
      "Frei": 9474,
      "web</w>": 9475,
      "Bereichen</w>": 9476,
      "Konz": 9477,
      "Ergebnis</w>": 9478,
      "connection</w>": 9479,
      "lok": 9480,
      "gab</w>": 9481,
      "ban</w>": 9482,
      "Vereinigten</w>": 9483,
      "Binnen": 9484,
      "Mul": 9485,
      "How</w>": 9486,
      "Bestimm": 9487,
      "Anderungsantrage</w>": 9488,
      "door</w>": 9489,
      "mas": 9490,
      "Net": 9491,
      "certainly</w>": 9492,
      "The": 9493,
      "final</w>": 9494,
      "stuck</w>": 9495,
      "zation</w>": 9496,
      "Chr": 9497,
      "Liste</w>": 9498,
      "Verwen": 9499,
      "Mun": 9500,
      "context</w>": 9501,
      "Abgeordneten</w>": 9502,
      "inge</w>": 9503,
      "stelle</w>": 9504,
      "Verf": 9505,
      "zahlt</w>": 9506,
      "sco": 9507,
      "add</w>": 9508,
      "attrac": 9509,
      "gres": 9510,
      "stances</w>": 9511,
      "sische</w>": 9512,
      "aware</w>": 9513,
      "licherweise</w>": 9514,
      "aring</w>": 9515,
      "traditional</w>": 9516,
      "significant</w>": 9517,
      "jedem</w>": 9518,
      "wahl</w>": 9519,
      "By</w>": 9520,
      "Wasser": 9521,
      "relations</w>": 9522,
      "erle": 9523,
      "formen</w>": 9524,
      "kampfung</w>": 9525,
      "samkeit</w>": 9526,
      "gegenwar": 9527,
      "fahigkeit</w>": 9528,
      "enor": 9529,
      "indic": 9530,
      "oring</w>": 9531,
      "ey": 9532,
      "performance</w>": 9533,
      "unds</w>": 9534,
      "Web</w>": 9535,
      "Einzel": 9536,
      "existing</w>": 9537,
      "Beziehungen</w>": 9538,
      "isen</w>": 9539,
      "tent</w>": 9540,
      "Antwort</w>": 9541,
      "Ham": 9542,
      "Turkey</w>": 9543,
      "Anderungsantrag</w>": 9544,
      "Aktiv": 9545,
      "Stab": 9546,
      "soft</w>": 9547,
      "Portug": 9548,
      "anz</w>": 9549,
      "log": 9550,
      "colleag": 9551,
      "Platz</w>": 9552,
      "ref": 9553,
      "although</w>": 9554,
      "gleichzeitig</w>": 9555,
      "stage</w>": 9556,
      "race</w>": 9557,
      "Pu": 9558,
      "America</w>": 9559,
      "far": 9560,
      "ending</w>": 9561,
      "Risi": 9562,
      "Bevolkerung</w>": 9563,
      "tation</w>": 9564,
      "Blick</w>": 9565,
      "Gele": 9566,
      "code</w>": 9567,
      "prakti": 9568,
      "original</w>": 9569,
      "oni": 9570,
      "Politi": 9571,
      "writing</w>": 9572,
      "igration</w>": 9573,
      "vels</w>": 9574,
      "ST": 9575,
      "weiß</w>": 9576,
      "Geh": 9577,
      "gemeinsam</w>": 9578,
      "tati": 9579,
      "contra": 9580,
      "heißt</w>": 9581,
      "concerns</w>": 9582,
      "ination</w>": 9583,
      "Urlau": 9584,
      "perfect</w>": 9585,
      "wat": 9586,
      "Geld</w>": 9587,
      "boten</w>": 9588,
      "programmes</w>": 9589,
      "consum": 9590,
      "Krise</w>": 9591,
      "aci": 9592,
      "ison</w>": 9593,
      "English</w>": 9594,
      "sag": 9595,
      "coordin": 9596,
      "wichtigen</w>": 9597,
      "Ausdruck</w>": 9598,
      "emer": 9599,
      "Joh": 9600,
      "Acc": 9601,
      "timme</w>": 9602,
      "zuru": 9603,
      "anderer</w>": 9604,
      "ising</w>": 9605,
      "kei</w>": 9606,
      "Erfolg</w>": 9607,
      "military</w>": 9608,
      "jahr": 9609,
      "thern</w>": 9610,
      "Verordnung</w>": 9611,
      "ligh": 9612,
      "bleibt</w>": 9613,
      "ebru": 9614,
      "Wohn": 9615,
      "game</w>": 9616,
      "walk</w>": 9617,
      "cell": 9618,
      "moment</w>": 9619,
      "Auff": 9620,
      "bility</w>": 9621,
      "unge": 9622,
      "my": 9623,
      "ulate</w>": 9624,
      "Flugha": 9625,
      "urch</w>": 9626,
      "richtig</w>": 9627,
      "Ph": 9628,
      "Government</w>": 9629,
      "sitz</w>": 9630,
      "itali": 9631,
      "volle</w>": 9632,
      "Wahl": 9633,
      "Bor": 9634,
      "quick": 9635,
      "pleas": 9636,
      "population</w>": 9637,
      "My</w>": 9638,
      "impact</w>": 9639,
      "mann</w>": 9640,
      "vir": 9641,
      "richten</w>": 9642,
      "legi": 9643,
      "Turkei</w>": 9644,
      "jede</w>": 9645,
      "gs": 9646,
      "lux": 9647,
      "professional</w>": 9648,
      "mes": 9649,
      "barkeit</w>": 9650,
      "mt</w>": 9651,
      "conflic": 9652,
      "mals</w>": 9653,
      "concerning</w>": 9654,
      "Verpflich": 9655,
      "eigen": 9656,
      "Online</w>": 9657,
      "Agen": 9658,
      "apply</w>": 9659,
      "read</w>": 9660,
      "committee</w>": 9661,
      "Tages": 9662,
      "accommod": 9663,
      "community</w>": 9664,
      "kil": 9665,
      "shed</w>": 9666,
      "Minister</w>": 9667,
      "erinn": 9668,
      "established</w>": 9669,
      "size</w>": 9670,
      "reasons</w>": 9671,
      "zz": 9672,
      "seite</w>": 9673,
      "Cre": 9674,
      "digung</w>": 9675,
      "Buch": 9676,
      "zen": 9677,
      "Schwi": 9678,
      "Aufgabe</w>": 9679,
      "stande</w>": 9680,
      "Verbindung</w>": 9681,
      "urn": 9682,
      "Sat": 9683,
      "bekommen</w>": 9684,
      "South</w>": 9685,
      "Glob": 9686,
      "agreements</w>": 9687,
      "kleine</w>": 9688,
      "lieren</w>": 9689,
      "nothing</w>": 9690,
      "cru": 9691,
[...]
